#include "network_data.h"

ai_handle ai_network_data_weights_get(void)
{

  AI_ALIGNED(4)
  static const ai_u8 s_network_weights[ 10772 ] = {
    0x4f, 0x49, 0x54, 0xbc, 0x16, 0x62, 0x84, 0x3e, 0x1e, 0x9c,
    0x13, 0x3e, 0xd3, 0xe1, 0x3a, 0x3e, 0xb2, 0x0f, 0x2b, 0xba,
    0xf1, 0x2f, 0x9a, 0x3e, 0x74, 0xd1, 0xc6, 0x3c, 0x8a, 0x13,
    0x37, 0xbe, 0x28, 0x15, 0xae, 0xbd, 0x03, 0xcc, 0x0c, 0xbd,
    0x3d, 0x2e, 0x85, 0xbd, 0x16, 0xa7, 0xa3, 0x3e, 0x1a, 0x07,
    0x88, 0x3d, 0x59, 0x56, 0x7d, 0x3e, 0xf3, 0xb5, 0x0d, 0x3d,
    0xb3, 0x51, 0x2f, 0x3e, 0xd8, 0x9b, 0xb9, 0xbd, 0x71, 0x52,
    0xdd, 0xbd, 0x0c, 0x59, 0x18, 0x3c, 0x12, 0x69, 0x01, 0x3e,
    0x3f, 0xd4, 0x08, 0xbd, 0xbb, 0xa3, 0x8c, 0x3e, 0xbc, 0x94,
    0x8e, 0x3d, 0xcc, 0x69, 0x49, 0xbd, 0xe6, 0x69, 0xba, 0x3d,
    0x2c, 0x4d, 0x06, 0xbe, 0x73, 0xc0, 0x84, 0xbd, 0x6d, 0x42,
    0x88, 0x3e, 0xb2, 0x60, 0x3e, 0xbe, 0x9b, 0x5b, 0x2f, 0x3e,
    0x09, 0x09, 0x32, 0xbe, 0xcf, 0x75, 0xf3, 0xbd, 0xaf, 0x0a,
    0x77, 0xbe, 0xf8, 0x43, 0x5f, 0xbe, 0x84, 0xb6, 0x87, 0x3c,
    0x8d, 0x7f, 0x10, 0x3d, 0x0f, 0x68, 0x87, 0xbd, 0x98, 0xbd,
    0x09, 0xbe, 0xb5, 0x6e, 0x86, 0xbe, 0xce, 0xe5, 0xef, 0xbd,
    0xab, 0x87, 0x20, 0x3d, 0xdf, 0xa0, 0xa9, 0xbd, 0x72, 0x34,
    0x72, 0xbd, 0x54, 0xa8, 0x05, 0x3e, 0x5e, 0x17, 0x85, 0x3e,
    0x6e, 0x0b, 0xa6, 0xbd, 0x44, 0x70, 0xe1, 0x3d, 0xa1, 0x6b,
    0x17, 0xbd, 0xe9, 0xa3, 0xa2, 0xbe, 0x2e, 0xe7, 0x4b, 0xbe,
    0x23, 0x28, 0xfc, 0xbd, 0xa0, 0x80, 0x0a, 0x3e, 0x16, 0x72,
    0xb9, 0xbd, 0xb8, 0xd3, 0x75, 0x3b, 0xc5, 0x47, 0x8b, 0xbe,
    0xa7, 0x77, 0x85, 0xbe, 0x5d, 0x49, 0x95, 0x3d, 0x38, 0xb3,
    0x62, 0xbc, 0x7c, 0xcd, 0xb0, 0xbe, 0x24, 0xbd, 0xa3, 0xbd,
    0x08, 0x5f, 0xcb, 0x3d, 0x9f, 0xcf, 0x7c, 0x3d, 0x8f, 0x8d,
    0xb5, 0x3d, 0x81, 0x33, 0xb4, 0xbe, 0x06, 0x40, 0x82, 0x3e,
    0xd1, 0xa6, 0x37, 0x3d, 0x33, 0x98, 0x18, 0x3d, 0xc5, 0x91,
    0x3b, 0x3e, 0x4e, 0x0d, 0x22, 0x3d, 0x81, 0xf6, 0x57, 0x3e,
    0x6c, 0xce, 0x94, 0x3e, 0x54, 0x42, 0x2d, 0x3e, 0x2d, 0x51,
    0x9f, 0x3e, 0x79, 0x98, 0x16, 0x3d, 0x01, 0x6b, 0x56, 0x3e,
    0x75, 0x84, 0xd9, 0x3d, 0x61, 0xae, 0xb1, 0x3e, 0xf3, 0x3d,
    0xb3, 0x3e, 0x4d, 0x18, 0x32, 0x3e, 0x5d, 0xef, 0x29, 0x3d,
    0x49, 0x8d, 0xef, 0x3c, 0xa8, 0x3c, 0x32, 0x3e, 0x4e, 0x95,
    0x87, 0x3e, 0x46, 0x68, 0x60, 0x3e, 0xf9, 0x23, 0x1b, 0x3d,
    0xbb, 0xc5, 0xd1, 0x3e, 0x3b, 0x98, 0x25, 0x3e, 0xb0, 0x41,
    0x5a, 0x3e, 0x01, 0xd3, 0x5d, 0x3e, 0xe4, 0x4f, 0x83, 0x3e,
    0xf7, 0xa3, 0x86, 0x3e, 0xa9, 0xaf, 0xa8, 0x3e, 0xf4, 0x9b,
    0xb9, 0x3e, 0xe6, 0x80, 0x84, 0x3e, 0xe8, 0x61, 0x09, 0x3e,
    0xc3, 0xc9, 0xbf, 0xbd, 0x99, 0x1d, 0xa8, 0xbd, 0x39, 0x56,
    0xa3, 0x3e, 0x4a, 0x06, 0x0e, 0x3e, 0x3a, 0x5f, 0xfe, 0xbc,
    0xac, 0xf9, 0x8f, 0x3e, 0xb2, 0x9d, 0xa7, 0x3e, 0xe1, 0x4f,
    0xeb, 0xbd, 0x0c, 0x5f, 0x43, 0x3d, 0x77, 0xb6, 0x67, 0x3d,
    0x9e, 0x51, 0x5a, 0x3a, 0x48, 0xb3, 0x40, 0x3e, 0xca, 0xfb,
    0x00, 0x3a, 0xe4, 0x95, 0xab, 0x3d, 0x1f, 0x1b, 0x7b, 0x3e,
    0xd5, 0xee, 0x91, 0xbd, 0xd8, 0xba, 0x91, 0xbd, 0x3e, 0x22,
    0xee, 0x3d, 0xca, 0x83, 0x85, 0xbe, 0x87, 0x4c, 0x41, 0xbe,
    0x58, 0x5b, 0x75, 0x3e, 0x2c, 0x25, 0x36, 0xbe, 0x4a, 0x7e,
    0x76, 0xbe, 0x3b, 0x12, 0xd0, 0xbe, 0xca, 0xb7, 0x33, 0xbd,
    0x99, 0x0a, 0x11, 0xbe, 0xca, 0xbf, 0x98, 0xbe, 0xd9, 0xf4,
    0xa4, 0xbe, 0x7b, 0x05, 0xe1, 0xbd, 0x41, 0x79, 0xb3, 0xbe,
    0xe0, 0xf8, 0x4b, 0xbe, 0xcf, 0x80, 0x95, 0xbe, 0x9f, 0xee,
    0x53, 0xbe, 0xd1, 0x7a, 0x41, 0x3e, 0xb3, 0xa4, 0x31, 0x3e,
    0x9e, 0x7f, 0x15, 0x3e, 0x9e, 0x81, 0x9e, 0x3e, 0x7a, 0x9d,
    0xda, 0x3e, 0x8e, 0xb1, 0x0d, 0x3e, 0x34, 0x9d, 0x35, 0x3e,
    0x53, 0xe7, 0xc9, 0xbd, 0xc0, 0x54, 0x4d, 0x3c, 0x90, 0x25,
    0xd2, 0x3d, 0x47, 0xd8, 0xa5, 0x3e, 0x97, 0x1e, 0x3f, 0xbb,
    0xde, 0xc3, 0xe2, 0x3e, 0xfd, 0xb1, 0x84, 0x3d, 0xc1, 0x92,
    0xd2, 0x3d, 0x50, 0x6d, 0xae, 0x3c, 0x0b, 0xb7, 0x4a, 0x3d,
    0x7e, 0x23, 0xe4, 0xbd, 0xe7, 0xf4, 0x5d, 0xbd, 0xcb, 0xe9,
    0x20, 0x3e, 0x0d, 0xf6, 0x3e, 0x3e, 0x8d, 0x56, 0x14, 0x3d,
    0x33, 0x4b, 0xcb, 0xbd, 0xbf, 0x2d, 0x7e, 0xbe, 0xf8, 0xad,
    0x92, 0xbe, 0x53, 0x4e, 0xa0, 0xbe, 0x65, 0xce, 0x28, 0x3e,
    0x88, 0x4b, 0x2e, 0x3d, 0xc6, 0xea, 0xe9, 0x3d, 0x6b, 0x4b,
    0xc0, 0xbe, 0x91, 0x01, 0xa4, 0xbe, 0x10, 0xdd, 0x5b, 0xbd,
    0x21, 0x24, 0xa3, 0x3c, 0xbd, 0x17, 0x8d, 0xbe, 0x58, 0xc8,
    0x44, 0xbe, 0x65, 0x21, 0x7b, 0x3e, 0xde, 0x1d, 0x9d, 0x3d,
    0xf1, 0x2a, 0x87, 0xbe, 0xbf, 0x35, 0xd7, 0xbe, 0xf7, 0xed,
    0x8e, 0xbe, 0xbb, 0x8f, 0xf1, 0xbd, 0xfe, 0x5c, 0xc5, 0xbd,
    0x35, 0x7b, 0x59, 0xbd, 0x25, 0x87, 0x5e, 0x3e, 0x4b, 0x67,
    0x4a, 0xbe, 0x4b, 0xd9, 0xf7, 0xbd, 0x35, 0x40, 0x93, 0xbe,
    0xf2, 0x6f, 0x77, 0xbe, 0x52, 0x1f, 0xe4, 0x3a, 0xea, 0x9f,
    0x97, 0xbd, 0x22, 0xe9, 0x9a, 0x3e, 0x70, 0xc7, 0x35, 0x3e,
    0x95, 0xb6, 0xa8, 0x3e, 0x3a, 0xa6, 0xe4, 0xbd, 0x18, 0x69,
    0x81, 0x3d, 0x85, 0x51, 0x63, 0x3d, 0xdf, 0x1c, 0xa0, 0x3c,
    0x4e, 0xd3, 0x5c, 0x3e, 0xca, 0xf4, 0xc4, 0x3e, 0x65, 0x1c,
    0x31, 0x3e, 0xc0, 0x99, 0xae, 0xbc, 0x56, 0x76, 0x84, 0x3e,
    0x7d, 0xd1, 0x98, 0xbd, 0xe3, 0xbf, 0x2c, 0x3e, 0x05, 0xbf,
    0x3f, 0x3d, 0x05, 0x97, 0xc2, 0xbc, 0x47, 0x6a, 0x94, 0x3e,
    0xf4, 0xaf, 0x51, 0xbd, 0xc5, 0x9a, 0x15, 0xbd, 0x5c, 0x6b,
    0x37, 0x3e, 0x24, 0x75, 0x55, 0x3e, 0xf3, 0xd9, 0xcd, 0x3d,
    0x93, 0xf4, 0x68, 0xbe, 0x94, 0x5e, 0x87, 0xbe, 0xf4, 0xb3,
    0x38, 0x3e, 0x91, 0x93, 0x87, 0xbe, 0xd0, 0xad, 0x8c, 0xbe,
    0x0a, 0xf0, 0x9c, 0xbd, 0xcd, 0x73, 0xc8, 0x3d, 0x08, 0xf9,
    0x16, 0x3c, 0x29, 0x1f, 0x41, 0xbd, 0xfb, 0x38, 0xbf, 0xbe,
    0x76, 0x30, 0xc8, 0xbe, 0xc8, 0x57, 0xc2, 0xbe, 0x45, 0x86,
    0x3e, 0xbe, 0xa0, 0xbe, 0xc6, 0xbe, 0x00, 0xe8, 0x91, 0xbd,
    0xe9, 0x68, 0x15, 0x3e, 0xa6, 0x19, 0x8f, 0x3c, 0x95, 0x15,
    0x5c, 0x3e, 0xd0, 0x7a, 0x4c, 0xbd, 0xe2, 0x27, 0x07, 0xbe,
    0xb3, 0xc0, 0xde, 0x3c, 0xaf, 0xec, 0x2f, 0xbe, 0x2a, 0xe3,
    0xcf, 0xbc, 0xe8, 0x12, 0xc1, 0x3e, 0x30, 0x87, 0x2d, 0x3e,
    0xed, 0xc2, 0x26, 0x3e, 0xdd, 0xa2, 0x6c, 0x3d, 0xd1, 0xf8,
    0x0f, 0x3c, 0x02, 0x5e, 0xa0, 0x3e, 0x5a, 0xf7, 0x82, 0x3e,
    0x35, 0xfb, 0xfb, 0xbd, 0x35, 0x70, 0xcf, 0x3e, 0xd2, 0x03,
    0x64, 0x3e, 0x90, 0xf6, 0x81, 0xbd, 0x7d, 0xe0, 0xf1, 0x3d,
    0x74, 0x6f, 0x2a, 0x3e, 0xab, 0x4e, 0x81, 0x3e, 0xf5, 0x7c,
    0xc4, 0xbc, 0x67, 0xc5, 0x8e, 0x3e, 0xf8, 0x92, 0xcc, 0x3e,
    0xe8, 0x08, 0xcf, 0xbd, 0xda, 0x8a, 0x69, 0xbe, 0x94, 0x1e,
    0x1e, 0xbe, 0x55, 0xb1, 0x64, 0x3d, 0xe1, 0x59, 0xaa, 0x3c,
    0x6f, 0x06, 0x1e, 0x3e, 0x47, 0x9b, 0xb0, 0xbc, 0x18, 0x79,
    0xaa, 0x3e, 0xf2, 0xd3, 0x56, 0xbd, 0x9e, 0xc4, 0xf9, 0x3c,
    0x91, 0x1b, 0x95, 0x3e, 0x77, 0x50, 0x0d, 0xbe, 0x04, 0x06,
    0x65, 0x3e, 0xdb, 0x17, 0x12, 0xbd, 0xb4, 0x28, 0xf7, 0x3c,
    0x28, 0x94, 0x7a, 0x3c, 0x97, 0x85, 0xda, 0x3c, 0x34, 0x44,
    0x6e, 0xbd, 0x9a, 0x57, 0x05, 0x3e, 0x0f, 0x23, 0x64, 0x3e,
    0x1b, 0xdb, 0xfd, 0x3d, 0xc3, 0xa4, 0x0f, 0x3e, 0x7e, 0x57,
    0xcd, 0xbd, 0x1a, 0x09, 0x16, 0x3e, 0x4c, 0x10, 0x5b, 0x3e,
    0x80, 0x3c, 0x5c, 0xbe, 0x2c, 0xf9, 0x5e, 0xbe, 0xa9, 0x8d,
    0x42, 0xbe, 0x09, 0x2b, 0xf6, 0xbd, 0x33, 0x90, 0xcd, 0x3c,
    0x20, 0xee, 0x49, 0x3e, 0x96, 0x67, 0x19, 0xbe, 0x3c, 0x7a,
    0xfb, 0xbd, 0x24, 0xa2, 0x77, 0x3d, 0x7a, 0x49, 0xe0, 0x3d,
    0xdf, 0x78, 0x3b, 0xbe, 0xe1, 0xdc, 0xb7, 0x3d, 0x08, 0x86,
    0x18, 0x3e, 0x1b, 0xf8, 0x09, 0x3c, 0xfc, 0x82, 0x2b, 0xbe,
    0x53, 0x49, 0x2c, 0xbe, 0x97, 0xf3, 0x2f, 0x3e, 0x61, 0x0b,
    0x26, 0xbe, 0xf5, 0x45, 0x38, 0xbe, 0xdc, 0x26, 0x9b, 0x3d,
    0x5a, 0x56, 0xff, 0xbd, 0xc6, 0x42, 0x93, 0xbc, 0x48, 0x00,
    0x5a, 0xbe, 0xac, 0x4c, 0x74, 0xbd, 0xec, 0x60, 0xcc, 0x3d,
    0xd4, 0xa4, 0x40, 0x3e, 0x55, 0x4a, 0x62, 0xbe, 0x54, 0x1f,
    0x9e, 0xbd, 0x16, 0xe8, 0x25, 0x3e, 0x95, 0x7a, 0x42, 0xbe,
    0x7d, 0x02, 0xb0, 0xbd, 0x3c, 0x04, 0x90, 0x3d, 0xa3, 0x0c,
    0xa6, 0xbd, 0x86, 0xc9, 0x02, 0x3e, 0x34, 0x88, 0x11, 0x3e,
    0x23, 0x46, 0xa7, 0xbb, 0x2a, 0x8b, 0x88, 0xbd, 0x52, 0x2a,
    0xd7, 0x3d, 0x76, 0x76, 0x3c, 0xbe, 0xf0, 0x8a, 0xb1, 0xbd,
    0xf6, 0xe7, 0x1d, 0xbe, 0xc7, 0xb3, 0xe2, 0xbd, 0xc5, 0xf4,
    0x0c, 0x3e, 0xcc, 0xed, 0x26, 0x3d, 0xc6, 0x9d, 0xbe, 0xbc,
    0xdd, 0xd8, 0xd1, 0xbd, 0xe6, 0x3e, 0xe2, 0xbd, 0x3b, 0x41,
    0x4e, 0xbe, 0xff, 0xbc, 0x9a, 0x3d, 0x32, 0x37, 0x1e, 0xbc,
    0xc4, 0xb6, 0x2d, 0xbe, 0x28, 0xdd, 0x44, 0x3d, 0x41, 0x51,
    0x78, 0x3d, 0x58, 0x95, 0xe0, 0x3c, 0x2b, 0x9b, 0x22, 0x3e,
    0xf4, 0xd4, 0x9e, 0xbd, 0xbd, 0x08, 0x56, 0xbe, 0x53, 0x14,
    0x34, 0xbe, 0x6f, 0xc3, 0x9e, 0xbd, 0x8b, 0x70, 0x9e, 0xbe,
    0x17, 0x24, 0x85, 0xbe, 0x60, 0x96, 0x05, 0x3e, 0x26, 0xd5,
    0x82, 0x3e, 0xe3, 0xfc, 0x8c, 0x3e, 0x08, 0x5d, 0xba, 0x3d,
    0x15, 0x36, 0x9b, 0xbe, 0x42, 0x10, 0x63, 0xbc, 0x23, 0x0e,
    0x92, 0xbe, 0xaf, 0x03, 0xbb, 0xbe, 0x33, 0x82, 0xa5, 0x3e,
    0x00, 0x85, 0x19, 0xbd, 0xf6, 0x7a, 0xb1, 0x3d, 0xee, 0x2a,
    0xbc, 0x3e, 0x75, 0x8d, 0xcc, 0xbd, 0xac, 0x1a, 0x53, 0x3e,
    0xb4, 0x52, 0xfa, 0x3c, 0x89, 0x8d, 0x8f, 0x3d, 0xce, 0x9d,
    0xf7, 0x3d, 0x51, 0x00, 0x71, 0x3e, 0xcb, 0x2c, 0x62, 0xbd,
    0x8a, 0xb4, 0x39, 0x3e, 0x84, 0x4e, 0x3f, 0x3d, 0x57, 0xfa,
    0x8f, 0x3d, 0x90, 0xb0, 0x82, 0x3e, 0x67, 0xca, 0xae, 0x3e,
    0xf4, 0xe4, 0x47, 0x3e, 0xa5, 0xa7, 0x86, 0xbd, 0x5e, 0x94,
    0xdb, 0x3e, 0xd6, 0x5e, 0xca, 0x3e, 0x74, 0x69, 0xf5, 0xbc,
    0xfa, 0x62, 0x6a, 0x3e, 0x9b, 0x29, 0xb2, 0x3c, 0xff, 0xbb,
    0x67, 0x3e, 0x8d, 0x40, 0xa5, 0x3e, 0x20, 0xdf, 0x5e, 0x3e,
    0xb7, 0x68, 0xe6, 0x3e, 0x7f, 0xcc, 0x98, 0x3e, 0x83, 0xdc,
    0xa1, 0x3d, 0x1f, 0xd2, 0x6c, 0xbe, 0x52, 0xb6, 0x12, 0x3e,
    0xfa, 0xd6, 0xa8, 0x3e, 0x1b, 0xef, 0xab, 0x3e, 0xc8, 0x66,
    0xf8, 0x3d, 0x5f, 0x88, 0x33, 0xbc, 0x3c, 0x55, 0x05, 0x3e,
    0x1e, 0xf3, 0x46, 0x3e, 0x18, 0xf2, 0xe9, 0xbd, 0xab, 0x6e,
    0x3e, 0xbe, 0x70, 0x33, 0x8b, 0x3e, 0xb9, 0xd3, 0xf0, 0x3c,
    0xbd, 0x8c, 0x29, 0x3e, 0x23, 0xa6, 0xd2, 0xbc, 0x21, 0xba,
    0x89, 0xbc, 0xb1, 0xc2, 0x72, 0x3e, 0x43, 0xa7, 0x00, 0x3b,
    0x08, 0x58, 0x80, 0x3d, 0xeb, 0xee, 0x82, 0x3e, 0x85, 0x56,
    0xd3, 0x3e, 0xf3, 0xbc, 0x48, 0xbd, 0x3f, 0xf7, 0xd2, 0xbd,
    0x61, 0xb2, 0xb1, 0xbd, 0xfc, 0xd8, 0x17, 0xbe, 0xff, 0x69,
    0x19, 0xbe, 0x86, 0x1e, 0x0b, 0x3d, 0x68, 0x48, 0x37, 0x3e,
    0x94, 0x8c, 0x1f, 0x3e, 0xd6, 0x22, 0xc0, 0xbd, 0xcc, 0x0d,
    0xe8, 0x3d, 0x49, 0xcc, 0x3b, 0xbe, 0x79, 0x41, 0x92, 0xbd,
    0xa1, 0xd0, 0xc4, 0xbe, 0xce, 0x56, 0x52, 0xbe, 0x9b, 0x24,
    0x48, 0xbe, 0x5d, 0x6d, 0x39, 0xbe, 0xc7, 0x8d, 0x2e, 0x3e,
    0xb9, 0xa9, 0x28, 0x3e, 0x3b, 0xb4, 0x7f, 0xbe, 0xb5, 0xc8,
    0x1d, 0xbe, 0x73, 0x5c, 0x86, 0xbd, 0x8d, 0xf9, 0x78, 0xbe,
    0x91, 0x9b, 0x8e, 0xbe, 0x06, 0x94, 0xab, 0x3d, 0x7d, 0x0c,
    0xbc, 0x3e, 0x45, 0x25, 0xd8, 0x3e, 0x45, 0xe5, 0xa0, 0x3e,
    0x54, 0xd3, 0x0a, 0xbe, 0x87, 0x1c, 0x3b, 0xbe, 0x6d, 0x04,
    0x39, 0x3e, 0x95, 0x6d, 0x9a, 0x3e, 0x13, 0x8b, 0x91, 0x3e,
    0x46, 0x20, 0x08, 0x3e, 0x4b, 0xa9, 0x8d, 0x3e, 0x7c, 0xae,
    0x15, 0xbc, 0xae, 0xa5, 0x66, 0x3e, 0xbb, 0x61, 0x9b, 0xbd,
    0xe2, 0x90, 0x17, 0x3e, 0x30, 0x52, 0x60, 0x3b, 0x38, 0xdb,
    0x9c, 0x3e, 0x0c, 0xf0, 0xe8, 0x3d, 0x3b, 0x0b, 0xe5, 0x3d,
    0xc1, 0x9d, 0x59, 0xbd, 0x54, 0x2b, 0x69, 0xbe, 0x64, 0x03,
    0xbf, 0xbe, 0x44, 0x6d, 0x88, 0xbe, 0x55, 0xd1, 0x56, 0xbe,
    0x55, 0x7b, 0x87, 0x3e, 0xb9, 0xae, 0xe2, 0x3e, 0xb1, 0x03,
    0xd5, 0x3d, 0x50, 0xe5, 0x2c, 0xbe, 0x55, 0xbd, 0xc0, 0xbe,
    0x3e, 0x6b, 0x39, 0xbd, 0x79, 0x49, 0xb6, 0x3d, 0x18, 0xe1,
    0xb7, 0x3c, 0xdb, 0x1d, 0x8c, 0x3e, 0xe4, 0x77, 0x24, 0x3e,
    0x5e, 0x5c, 0x8d, 0x3e, 0x08, 0xb6, 0x7c, 0xbd, 0x67, 0x7d,
    0x4f, 0x3d, 0x1e, 0xeb, 0x07, 0x3e, 0x5b, 0x08, 0xb3, 0xbd,
    0x1d, 0x81, 0x22, 0x3e, 0xe5, 0xb8, 0x2b, 0xbd, 0x6b, 0x04,
    0xca, 0x3e, 0x0c, 0xee, 0x4b, 0xbc, 0xbb, 0x05, 0x4d, 0xbe,
    0x6e, 0x58, 0x65, 0xbd, 0x84, 0x55, 0x9d, 0x3d, 0xae, 0xb9,
    0xba, 0x3c, 0xde, 0xf0, 0x9d, 0xbe, 0xc4, 0xd1, 0xeb, 0xbd,
    0xad, 0x37, 0x4b, 0xbe, 0xbb, 0x2c, 0x9e, 0x3e, 0x22, 0xc8,
    0x40, 0x3e, 0x92, 0x87, 0xe5, 0x3d, 0x84, 0x21, 0x31, 0xbd,
    0xee, 0xff, 0xbf, 0xbd, 0x3b, 0x2f, 0x95, 0xbe, 0x24, 0x64,
    0x2d, 0xbd, 0xcb, 0xf3, 0xb3, 0xbd, 0x97, 0xbb, 0xbe, 0x3e,
    0xa7, 0x93, 0xcb, 0x3e, 0x0e, 0xc2, 0xed, 0x3c, 0x0d, 0xfa,
    0xb0, 0xbd, 0x4f, 0x34, 0x85, 0xbe, 0x63, 0x05, 0xf6, 0xbc,
    0x04, 0x00, 0x0c, 0x3e, 0xe3, 0x47, 0x97, 0x3e, 0xd6, 0xe5,
    0xe3, 0x3e, 0x49, 0xf6, 0x91, 0x3e, 0xc1, 0x26, 0x4b, 0x3e,
    0xf2, 0x68, 0x8a, 0xbc, 0x52, 0xcf, 0x23, 0x3e, 0xef, 0x29,
    0x55, 0x3e, 0x24, 0x0e, 0xd4, 0x3d, 0x3e, 0xf2, 0x7d, 0x3e,
    0x49, 0x21, 0xde, 0x3e, 0xf5, 0xc1, 0x98, 0x3d, 0x54, 0x45,
    0x79, 0x3e, 0x3f, 0xf0, 0xf0, 0x3d, 0x18, 0x2d, 0x9b, 0x3e,
    0x54, 0xe1, 0x2b, 0xbd, 0x31, 0x15, 0x20, 0x3e, 0x8f, 0x88,
    0x50, 0x3e, 0xb0, 0x84, 0xaf, 0x3e, 0x7b, 0x6f, 0xd2, 0x3d,
    0xc3, 0x43, 0x92, 0xbe, 0xd7, 0xef, 0x1d, 0xbd, 0x2c, 0x85,
    0x6c, 0xbb, 0x38, 0x3d, 0x11, 0x3e, 0x38, 0xe2, 0xb0, 0x3d,
    0xe7, 0x09, 0xb7, 0xbe, 0xfc, 0x1e, 0x4a, 0x3e, 0x57, 0x26,
    0xa2, 0xbd, 0xf2, 0xc8, 0x0d, 0xbe, 0x00, 0x7d, 0x6a, 0xbd,
    0x70, 0x09, 0xbc, 0xbe, 0xb6, 0x98, 0xc3, 0xbe, 0xc0, 0xb9,
    0xd0, 0xbd, 0x52, 0x41, 0x1b, 0xbe, 0x68, 0x87, 0x61, 0x3e,
    0xd4, 0xa8, 0x28, 0xbc, 0x60, 0x1e, 0x8a, 0xbe, 0x4d, 0x8a,
    0x08, 0xbe, 0xd8, 0x96, 0x27, 0xbd, 0xb2, 0xb5, 0xb4, 0xbd,
    0x17, 0x33, 0x2f, 0xbe, 0x1f, 0x5d, 0x80, 0x3d, 0x31, 0xb6,
    0xd7, 0xbd, 0x25, 0xf0, 0xc5, 0xbd, 0xb6, 0xd6, 0xbf, 0x3e,
    0x73, 0xff, 0xd0, 0x3e, 0xdf, 0x8a, 0x99, 0x3e, 0x09, 0x62,
    0x6e, 0x3e, 0xaf, 0x4d, 0x02, 0xbe, 0xf4, 0x1b, 0xa8, 0x3e,
    0xd4, 0x0c, 0x72, 0x3d, 0x0b, 0x00, 0xcd, 0xbe, 0x97, 0x84,
    0x3c, 0xbe, 0x3b, 0x8d, 0xa6, 0x3d, 0x14, 0x27, 0x95, 0x3e,
    0xe4, 0x34, 0x5c, 0xbe, 0x23, 0xe7, 0x30, 0xbe, 0x5a, 0x40,
    0x1f, 0x3e, 0xfa, 0x4a, 0x90, 0xbe, 0x98, 0x84, 0x0b, 0xbe,
    0x58, 0x82, 0x47, 0xbd, 0x9c, 0xfe, 0xd2, 0xbd, 0x0d, 0x4f,
    0x02, 0xbe, 0xec, 0xa1, 0x4c, 0xbe, 0xef, 0x5d, 0x90, 0xbd,
    0x1d, 0xc2, 0xd7, 0x3d, 0x15, 0xd7, 0x0e, 0xbe, 0x7d, 0x47,
    0x46, 0xbd, 0x21, 0xa4, 0x92, 0xbe, 0x14, 0x84, 0x43, 0x3e,
    0x5b, 0xe8, 0x1d, 0x3d, 0xe0, 0xd2, 0xce, 0xbe, 0xfb, 0x3e,
    0x46, 0xbe, 0x3b, 0xb5, 0x08, 0xbe, 0x51, 0x40, 0x2d, 0x3e,
    0xbd, 0x3a, 0xcb, 0x3d, 0x9f, 0x19, 0x5a, 0xbe, 0xa2, 0x93,
    0xd5, 0xbd, 0x4a, 0x11, 0x3d, 0x3e, 0x06, 0x52, 0xb4, 0xbe,
    0x72, 0x95, 0x00, 0xbe, 0x4a, 0x43, 0xab, 0x3b, 0xa3, 0xa7,
    0x13, 0x3c, 0x19, 0xc7, 0x15, 0xbd, 0xad, 0xee, 0x80, 0x3e,
    0x4b, 0x57, 0x58, 0x3e, 0xc6, 0xb2, 0xc7, 0x3c, 0xb2, 0xd1,
    0x02, 0xbc, 0x9c, 0x49, 0x91, 0x3e, 0xdc, 0x31, 0x73, 0x3e,
    0xb3, 0xbd, 0x87, 0x3e, 0x3f, 0x9e, 0xcc, 0x3e, 0x75, 0xe2,
    0x6d, 0x3d, 0xa4, 0x21, 0xad, 0x3e, 0x5c, 0x9e, 0x91, 0x3e,
    0xc8, 0xdb, 0xbd, 0x3e, 0xa9, 0xfb, 0x7e, 0x3e, 0xc6, 0x09,
    0x99, 0x3e, 0x65, 0xce, 0xcd, 0x3e, 0x1c, 0x48, 0xd9, 0x3d,
    0x0b, 0x1e, 0xe3, 0x3e, 0xb1, 0x52, 0x01, 0x3d, 0x99, 0x3e,
    0x48, 0x3e, 0x2a, 0xba, 0xba, 0x3e, 0xaa, 0xe2, 0x8b, 0x3e,
    0xe8, 0xd5, 0xfc, 0x3d, 0x09, 0x21, 0x87, 0x3d, 0x99, 0x55,
    0x36, 0xbe, 0x41, 0x00, 0x19, 0x3e, 0x2b, 0xa8, 0x81, 0xbe,
    0x40, 0xb3, 0x80, 0xbe, 0x17, 0x0f, 0x40, 0xbe, 0xf6, 0x7a,
    0xb6, 0xbc, 0x86, 0x80, 0xec, 0x3d, 0x86, 0xda, 0x3a, 0x3e,
    0x35, 0xec, 0x8d, 0x3e, 0x08, 0x4d, 0x1a, 0x3e, 0xf5, 0x40,
    0xa1, 0x3c, 0x0a, 0xe2, 0xa5, 0x3d, 0x5b, 0xd2, 0xc2, 0x3c,
    0x15, 0x8f, 0x59, 0xbd, 0xfb, 0x13, 0x77, 0xbe, 0xba, 0x8f,
    0xd9, 0x3e, 0xe3, 0xc2, 0x90, 0x3e, 0x2f, 0x5e, 0x7b, 0xbd,
    0x0e, 0xf8, 0x30, 0xbe, 0xb3, 0xd7, 0x20, 0x3e, 0x25, 0x1a,
    0x86, 0x3b, 0x23, 0x88, 0xa6, 0x3d, 0x27, 0x2d, 0x04, 0x3e,
    0x9c, 0x6c, 0x9a, 0x3e, 0x44, 0x0a, 0x0c, 0x3e, 0x91, 0xb2,
    0x4c, 0x3e, 0xec, 0x68, 0x3a, 0x3e, 0x94, 0xc4, 0x8c, 0x3e,
    0xf9, 0xba, 0x84, 0x3e, 0x3d, 0xa8, 0x19, 0x3d, 0xf2, 0xde,
    0x39, 0x3e, 0xce, 0xda, 0xc6, 0x3e, 0x07, 0x4b, 0x78, 0x3e,
    0x61, 0x4b, 0xc2, 0xbd, 0x9d, 0x43, 0x53, 0x3d, 0x79, 0x1f,
    0x1b, 0x3d, 0x7e, 0x1b, 0x59, 0xbd, 0x29, 0xf2, 0x40, 0xbc,
    0x9f, 0xe1, 0xf0, 0x3d, 0xc7, 0x63, 0xa5, 0x3e, 0x35, 0x9c,
    0xab, 0x3d, 0x45, 0x3f, 0x20, 0xbe, 0xcf, 0xc3, 0xb9, 0xbe,
    0x31, 0x37, 0x7c, 0xbe, 0x81, 0x1c, 0x5f, 0xbe, 0xdc, 0xe5,
    0x48, 0xbe, 0xaf, 0x12, 0xde, 0xbd, 0x35, 0x53, 0x3b, 0x3e,
    0xfe, 0x4f, 0xca, 0x3c, 0xbc, 0x7f, 0x02, 0x3e, 0x85, 0x20,
    0xae, 0x3d, 0x46, 0x5b, 0x44, 0xbd, 0x1e, 0xf9, 0x24, 0xbe,
    0x78, 0xfd, 0x85, 0xbe, 0x63, 0x4a, 0x5f, 0xbe, 0x24, 0x67,
    0x81, 0x3d, 0xa2, 0xd1, 0xaf, 0x3e, 0xd9, 0x9a, 0xba, 0x3e,
    0xe3, 0x81, 0xaf, 0x3e, 0x00, 0x8c, 0x91, 0xbd, 0xa3, 0x06,
    0x96, 0x3e, 0xa5, 0xe6, 0x0d, 0xbe, 0x7a, 0x07, 0x4c, 0xbe,
    0x85, 0x5b, 0x1a, 0xbc, 0x13, 0x0a, 0x45, 0xbe, 0x5a, 0x87,
    0x93, 0x3d, 0x28, 0x05, 0x5c, 0x3d, 0xc6, 0xb2, 0x2c, 0x3d,
    0x02, 0x97, 0x11, 0xbe, 0x30, 0x42, 0x1d, 0x3e, 0xc2, 0xa0,
    0xaa, 0xbd, 0x9c, 0x7a, 0x36, 0xbe, 0x44, 0x31, 0xb4, 0xbd,
    0x22, 0xd8, 0x33, 0xbe, 0xb3, 0x0c, 0x6e, 0xbe, 0xad, 0x72,
    0x1e, 0x3e, 0xe5, 0x60, 0xdb, 0xbd, 0xe0, 0xcc, 0x6e, 0x3e,
    0xe6, 0x21, 0xff, 0x3b, 0xe5, 0x89, 0x3a, 0x3e, 0x42, 0x7c,
    0xed, 0xbc, 0x61, 0x51, 0x41, 0xbe, 0xd0, 0x4a, 0x49, 0x3e,
    0x75, 0x29, 0xc2, 0xbd, 0x67, 0x4c, 0xc6, 0xbd, 0xde, 0xce,
    0xe8, 0xbc, 0x60, 0x92, 0x84, 0xbe, 0xe9, 0x34, 0xc1, 0x3d,
    0x8f, 0x85, 0xaf, 0x3d, 0x3d, 0xf1, 0xa3, 0x3d, 0x47, 0xac,
    0xb1, 0xbd, 0xd5, 0xcc, 0x1e, 0x3e, 0x2c, 0xa9, 0x58, 0xbe,
    0x11, 0x7c, 0x22, 0xbe, 0x38, 0x09, 0x57, 0xbe, 0x31, 0x07,
    0x38, 0x3e, 0x80, 0x0f, 0x0e, 0x3c, 0xc9, 0xef, 0x67, 0x3e,
    0x23, 0x01, 0xa6, 0xbb, 0xe3, 0x50, 0x82, 0xbe, 0x41, 0xa8,
    0x27, 0xbe, 0x72, 0xf5, 0x36, 0x3e, 0xc3, 0x0f, 0x2c, 0x3e,
    0x82, 0x83, 0x4b, 0x3e, 0x18, 0x37, 0x74, 0xbe, 0x5e, 0xb3,
    0x2a, 0x3e, 0x99, 0xdf, 0x5a, 0x3e, 0xb3, 0x0b, 0x2b, 0xbd,
    0xb3, 0x35, 0x74, 0xbd, 0xcd, 0x52, 0xe4, 0x3d, 0xaa, 0xd3,
    0x9f, 0x3d, 0x43, 0xb4, 0xa6, 0x3d, 0xe5, 0x72, 0x14, 0x3d,
    0x29, 0xbf, 0x79, 0xbe, 0x46, 0x9a, 0x42, 0xbe, 0xfd, 0x61,
    0x99, 0xbd, 0x93, 0xc6, 0x83, 0xbd, 0x0a, 0x9b, 0x8f, 0x3d,
    0xa3, 0xef, 0x28, 0x3e, 0xd0, 0xd2, 0x86, 0xbd, 0x50, 0x3e,
    0x61, 0xbe, 0xcc, 0xfe, 0x62, 0xbe, 0x06, 0x18, 0x7f, 0xbe,
    0x2b, 0x7e, 0xe6, 0x3d, 0xf9, 0x4b, 0x38, 0x3e, 0x5d, 0x0f,
    0x69, 0xbe, 0x6d, 0x46, 0x2c, 0xbd, 0x88, 0x4b, 0xc1, 0xbd,
    0xf4, 0x82, 0x2c, 0xbe, 0x80, 0xad, 0x70, 0x3d, 0x08, 0x70,
    0x6c, 0xbe, 0x30, 0x6c, 0x38, 0x3e, 0x38, 0x81, 0x21, 0x3e,
    0x3c, 0x2f, 0x0f, 0x3e, 0x3c, 0x24, 0x01, 0xbe, 0xe8, 0xa3,
    0xfa, 0xbd, 0x10, 0xf8, 0xad, 0x3d, 0x4c, 0x13, 0x05, 0xbe,
    0xe0, 0xef, 0xbe, 0xbd, 0x5c, 0x6e, 0x1a, 0x3e, 0x18, 0x2b,
    0x9b, 0xbd, 0x70, 0x6e, 0x78, 0xbe, 0x28, 0x61, 0x2c, 0xbe,
    0x68, 0x24, 0x89, 0xbd, 0xa8, 0x89, 0xe4, 0x3d, 0xe8, 0xd0,
    0xfd, 0xbd, 0xd8, 0x2c, 0xc4, 0xbd, 0x48, 0x90, 0xed, 0xbd,
    0xf8, 0x67, 0x97, 0xbd, 0x88, 0x20, 0x6e, 0xbe, 0x00, 0x5c,
    0x3a, 0xba, 0x80, 0xd9, 0x4e, 0x3d, 0x40, 0x25, 0x7c, 0xbe,
    0xe8, 0x77, 0xc8, 0x3d, 0x50, 0x6d, 0x35, 0xbd, 0xd8, 0x49,
    0xfa, 0x3d, 0xb8, 0xa2, 0x86, 0xbd, 0x6c, 0x90, 0x20, 0x3e,
    0x74, 0x79, 0x3e, 0x3e, 0xe8, 0xd6, 0x88, 0x3d, 0x38, 0xcc,
    0xdd, 0xbd, 0x90, 0x28, 0x16, 0x3e, 0x90, 0x39, 0xbf, 0x3d,
    0x00, 0xa0, 0x0d, 0x3b, 0xa4, 0xd0, 0x50, 0xbe, 0xb0, 0xc6,
    0x53, 0xbe, 0x08, 0xb0, 0x2d, 0xbe, 0x40, 0xb6, 0xd2, 0xbd,
    0xd0, 0x6c, 0xba, 0x3d, 0x14, 0xb0, 0x52, 0xbe, 0x44, 0x94,
    0x1e, 0xbe, 0x94, 0x0a, 0x39, 0x3e, 0x20, 0x7f, 0xfb, 0x3c,
    0x70, 0xda, 0x83, 0x3d, 0x58, 0xfa, 0x3b, 0x3e, 0xa0, 0xe8,
    0x1d, 0xbe, 0x68, 0x6a, 0xe3, 0xbd, 0x20, 0xbb, 0x01, 0x3d,
    0xe0, 0x52, 0x47, 0x3d, 0xe0, 0x1b, 0xdc, 0xbc, 0x8c, 0xae,
    0x31, 0xbe, 0x00, 0x7e, 0xde, 0x3b, 0x20, 0xb0, 0xd4, 0x3c,
    0xa8, 0x90, 0xba, 0x3d, 0x00, 0x1d, 0xbf, 0x3c, 0xe0, 0xe8,
    0xed, 0xbc, 0x60, 0x02, 0x5e, 0x3d, 0x90, 0x6a, 0x76, 0x3d,
    0x04, 0x09, 0x53, 0xbe, 0x00, 0xb8, 0xe7, 0x3b, 0x80, 0x5c,
    0x82, 0xbc, 0x7e, 0xad, 0x50, 0xbe, 0xc8, 0x3c, 0xb0, 0xbd,
    0x6b, 0x3e, 0x93, 0xbd, 0xdf, 0xba, 0xde, 0x3d, 0xcb, 0xae,
    0xe9, 0x3d, 0xa3, 0x30, 0xfa, 0x3d, 0x1f, 0x9b, 0x66, 0x3c,
    0x67, 0x39, 0x11, 0xbe, 0x6f, 0x2c, 0x6e, 0x3e, 0x09, 0x44,
    0x6f, 0xbe, 0x2e, 0x1b, 0xd0, 0xbd, 0x36, 0x14, 0x4e, 0xbe,
    0xb7, 0xdc, 0xd5, 0x3d, 0x2e, 0xf0, 0x0f, 0x3e, 0xdd, 0xd7,
    0x80, 0xbe, 0x3f, 0xe7, 0x10, 0xbe, 0x2e, 0x3c, 0x12, 0xbe,
    0x54, 0xd9, 0x08, 0xbe, 0x6a, 0x43, 0x35, 0x3c, 0x5d, 0x91,
    0x1c, 0xbe, 0xc0, 0x87, 0x79, 0xbe, 0x11, 0x6c, 0x3c, 0xbe,
    0x6b, 0xd2, 0x22, 0xbe, 0x98, 0xab, 0x5c, 0xbd, 0x7c, 0x28,
    0x59, 0xbd, 0x61, 0xd6, 0x4f, 0x3e, 0xa2, 0xd5, 0x06, 0xbb,
    0x8c, 0x2d, 0x07, 0xbd, 0xa8, 0xe3, 0xfc, 0x3c, 0x02, 0x64,
    0x4b, 0x3e, 0x50, 0x64, 0x4f, 0x3e, 0x99, 0xab, 0xb5, 0xbd,
    0x75, 0x39, 0xa4, 0x3d, 0x2f, 0xc1, 0x2b, 0xbe, 0xfb, 0x13,
    0xe0, 0x3d, 0xc7, 0xb0, 0x75, 0x3c, 0xf1, 0x8b, 0x04, 0xbe,
    0xe6, 0x4d, 0x17, 0x3e, 0x4d, 0xed, 0x3d, 0x3e, 0xe7, 0x29,
    0x13, 0x3d, 0xa3, 0x7d, 0x81, 0xbe, 0xf3, 0xb3, 0x2e, 0x3e,
    0x64, 0xf0, 0x4d, 0xbd, 0x9d, 0x93, 0x78, 0xbe, 0xc3, 0x98,
    0xa5, 0xbd, 0xaf, 0x8b, 0x82, 0xbe, 0xab, 0xea, 0x61, 0x3e,
    0x7a, 0x52, 0x52, 0xbd, 0x89, 0xd0, 0xb0, 0x3d, 0x16, 0xdc,
    0x1e, 0xbe, 0x08, 0xe8, 0x5e, 0x3e, 0x11, 0x97, 0x4b, 0xbe,
    0x1f, 0x60, 0x50, 0x3e, 0x94, 0xff, 0x14, 0x3c, 0xa2, 0x29,
    0x49, 0x3e, 0x5e, 0xf1, 0xfd, 0xbd, 0xb1, 0x0c, 0x41, 0x3e,
    0xf3, 0xbe, 0x72, 0xbe, 0x60, 0xe7, 0x1a, 0x39, 0x04, 0x3d,
    0x1a, 0xbe, 0xd0, 0x43, 0x1e, 0xbe, 0x2b, 0x09, 0x81, 0xbe,
    0x67, 0xe5, 0x6b, 0x3e, 0x04, 0xd8, 0x3a, 0x3e, 0x6e, 0xe8,
    0x0a, 0x3e, 0xfa, 0x4f, 0x1d, 0x3e, 0x28, 0xa8, 0x89, 0x3d,
    0xd5, 0xdf, 0xa8, 0x3e, 0xd9, 0x2e, 0x16, 0x3d, 0x62, 0x8c,
    0x26, 0x3c, 0x73, 0x23, 0x89, 0x3e, 0x54, 0x65, 0xb2, 0xbc,
    0xdc, 0x58, 0xa4, 0xbe, 0x22, 0x78, 0xd8, 0xbc, 0x05, 0x2a,
    0xe9, 0x3d, 0x37, 0x08, 0xae, 0x3e, 0xa2, 0x58, 0x18, 0x3e,
    0x6f, 0xed, 0x4f, 0xbc, 0x1f, 0xbc, 0x7f, 0x3e, 0x46, 0x2d,
    0x3f, 0x3e, 0x64, 0x51, 0x6b, 0xbe, 0xf0, 0x4e, 0x53, 0xbe,
    0x2f, 0x91, 0x9e, 0x3e, 0x7a, 0x24, 0xc0, 0x3e, 0x52, 0xee,
    0x3f, 0xbd, 0x5b, 0x05, 0xe8, 0x3c, 0xe8, 0x70, 0xa6, 0x3d,
    0x56, 0x32, 0x2c, 0x3c, 0x88, 0x35, 0xc5, 0x3d, 0xc0, 0xd4,
    0x8e, 0xbe, 0x10, 0x6d, 0x70, 0x3d, 0x4c, 0x69, 0x5e, 0x3e,
    0xa0, 0xdc, 0x65, 0xbe, 0xe2, 0x84, 0xe3, 0x3d, 0x53, 0x6b,
    0x6b, 0xbc, 0x6d, 0x1f, 0x17, 0x3e, 0x06, 0x3f, 0xc7, 0xbb,
    0x31, 0x5e, 0x83, 0x3d, 0xeb, 0x3e, 0xb6, 0xbd, 0xa4, 0xbf,
    0xa3, 0x3e, 0x07, 0x5a, 0x4a, 0x3c, 0xba, 0x4f, 0xf6, 0x3d,
    0x51, 0xd6, 0x81, 0xbe, 0xbd, 0x3c, 0xbb, 0x3d, 0xc8, 0xcb,
    0x9a, 0x3d, 0x63, 0x48, 0x82, 0x3d, 0xbd, 0x56, 0xd9, 0x3d,
    0x81, 0x08, 0x81, 0x3e, 0x00, 0x69, 0x85, 0x3e, 0x53, 0xc0,
    0x80, 0x3d, 0xc8, 0xb3, 0xb6, 0xbd, 0x7a, 0xbc, 0x9c, 0x3e,
    0xf2, 0x59, 0xcd, 0xbe, 0xc9, 0x92, 0x76, 0xbb, 0xff, 0x6f,
    0x2a, 0x3e, 0xb7, 0xf2, 0xa4, 0x3e, 0x9f, 0x1d, 0x9d, 0x3e,
    0xe2, 0x01, 0x90, 0x3e, 0xdd, 0x13, 0x9e, 0x3e, 0xa3, 0xb7,
    0x06, 0x3c, 0x2e, 0xf6, 0xad, 0xbe, 0x2f, 0x3e, 0xd7, 0xbe,
    0xf6, 0xf1, 0xa2, 0xbd, 0xa2, 0x03, 0x93, 0x3e, 0x2d, 0x83,
    0xec, 0xbd, 0x2f, 0xa0, 0xa7, 0xbe, 0xb4, 0x20, 0x44, 0xbd,
    0xa4, 0xe2, 0x68, 0x3e, 0x20, 0xf3, 0xfe, 0xbd, 0xe7, 0xf7,
    0x76, 0x3e, 0x04, 0xe9, 0x92, 0x3e, 0xc9, 0xba, 0xb4, 0x3e,
    0x32, 0x66, 0x3f, 0x3e, 0xde, 0xda, 0x67, 0x3e, 0x41, 0xcf,
    0x8d, 0x3e, 0x59, 0x8b, 0xab, 0xbd, 0x51, 0x3a, 0x0a, 0x3e,
    0x29, 0xb7, 0x14, 0xbe, 0x6a, 0xdb, 0x6b, 0x3e, 0xab, 0x77,
    0xe2, 0x3d, 0x90, 0x71, 0x04, 0x3e, 0xdc, 0x73, 0xbb, 0xbd,
    0x1f, 0x0d, 0x41, 0xbe, 0xa3, 0x77, 0xcf, 0x3d, 0x2e, 0x01,
    0x20, 0xbe, 0xa0, 0x0f, 0x1b, 0xbe, 0xa8, 0xdb, 0x3c, 0x3e,
    0xba, 0xaf, 0x39, 0xbe, 0xb0, 0xe0, 0xb0, 0xbd, 0x1d, 0xc5,
    0x1a, 0xbe, 0x1d, 0x69, 0x25, 0xbd, 0x5f, 0xec, 0x1f, 0xbe,
    0x77, 0x44, 0x37, 0xbe, 0xbd, 0x55, 0x8b, 0x3d, 0x1a, 0xbb,
    0x0a, 0x3e, 0xc5, 0x8c, 0x83, 0xbd, 0x54, 0x18, 0x9f, 0xbe,
    0xcb, 0x19, 0x6f, 0xbe, 0x5f, 0x35, 0x95, 0xbe, 0x57, 0xb6,
    0xa0, 0x3e, 0x48, 0xa4, 0x6d, 0xbd, 0xa6, 0xf4, 0x4e, 0xbe,
    0x95, 0x9b, 0x98, 0x3d, 0xda, 0x3a, 0x21, 0x3e, 0x85, 0xdc,
    0x4b, 0x3d, 0xb1, 0x07, 0x2d, 0xbd, 0xfa, 0x9e, 0x00, 0x3e,
    0xe9, 0x42, 0x01, 0xbd, 0x4f, 0x45, 0x17, 0x3e, 0x2f, 0x53,
    0xc8, 0x3d, 0x46, 0xe7, 0x30, 0xbe, 0x1e, 0x9c, 0x81, 0x3e,
    0x8e, 0x93, 0x8d, 0x3e, 0x57, 0x62, 0xb7, 0xbd, 0x84, 0x09,
    0x88, 0x3e, 0xa5, 0xed, 0x7b, 0x3e, 0xac, 0x43, 0x3f, 0xbe,
    0xa7, 0xc5, 0xc3, 0xbe, 0xca, 0x2d, 0x8c, 0xbe, 0xf5, 0x36,
    0xb5, 0x3d, 0x72, 0x95, 0xd1, 0x3d, 0xdc, 0x01, 0xe5, 0x3d,
    0x4d, 0x86, 0x59, 0x3e, 0x27, 0x61, 0x4c, 0x3e, 0xa6, 0x5c,
    0x9e, 0xbe, 0x06, 0xed, 0x12, 0xbe, 0xbd, 0x2e, 0x97, 0xbe,
    0xe3, 0x0e, 0x27, 0xbe, 0x0c, 0x03, 0x11, 0x3e, 0xe5, 0xbe,
    0x28, 0xbe, 0x12, 0xbd, 0x9a, 0xbe, 0xda, 0xe3, 0x3a, 0x3e,
    0x1d, 0x1a, 0xd8, 0xbd, 0x75, 0x49, 0x6f, 0x3e, 0x11, 0xfe,
    0x84, 0xbc, 0x60, 0xe0, 0x80, 0x3d, 0x19, 0x30, 0x64, 0x3e,
    0xf9, 0x2f, 0x45, 0x3d, 0xd7, 0xbd, 0x18, 0x3d, 0x9f, 0xb6,
    0x70, 0x3e, 0xca, 0xec, 0x3e, 0xbe, 0xca, 0x56, 0x05, 0x3c,
    0x68, 0xaa, 0xdb, 0x3d, 0xdc, 0x3d, 0xa6, 0x3d, 0xe4, 0x58,
    0x3f, 0xbc, 0xae, 0xfb, 0xb7, 0x3e, 0x64, 0x6a, 0xcd, 0x3e,
    0xc3, 0x62, 0xaf, 0x3e, 0x47, 0xc5, 0x51, 0xbe, 0x31, 0x30,
    0x8c, 0xbd, 0x0d, 0x38, 0x13, 0x3b, 0xe3, 0xd7, 0x99, 0x3c,
    0x2f, 0xbc, 0x93, 0x3e, 0x19, 0x75, 0x39, 0x3e, 0x8f, 0x6d,
    0x9e, 0x3e, 0xd4, 0x43, 0x36, 0x3e, 0xc4, 0x63, 0x6d, 0xbe,
    0x72, 0x6e, 0x96, 0xbd, 0xa6, 0xb0, 0x1e, 0x3e, 0x43, 0x46,
    0xef, 0x3d, 0xe4, 0xf9, 0x86, 0x3e, 0x84, 0xbf, 0x72, 0x3e,
    0xc4, 0x5f, 0xbb, 0x3e, 0x81, 0x72, 0x2c, 0x3e, 0xea, 0xcb,
    0xe0, 0x3d, 0x3b, 0x00, 0x8b, 0x3e, 0xeb, 0xf4, 0x65, 0x3c,
    0x7b, 0xf0, 0x16, 0x3e, 0x11, 0xfb, 0x9a, 0x3d, 0x14, 0xca,
    0x2e, 0x3e, 0xd4, 0x7e, 0x67, 0x3e, 0x88, 0xed, 0x20, 0xbe,
    0xa4, 0x60, 0x04, 0x3e, 0xd8, 0x27, 0xf9, 0x3d, 0x70, 0x42,
    0xb6, 0x3e, 0xa4, 0xf7, 0x34, 0x3b, 0x92, 0x68, 0x8d, 0x3d,
    0xb6, 0x85, 0x51, 0x3e, 0xc2, 0x14, 0xbd, 0x3e, 0xbb, 0x20,
    0xbd, 0x3e, 0x42, 0x9e, 0x2d, 0xbe, 0xdc, 0xf4, 0x33, 0x3e,
    0xe2, 0x2d, 0xd1, 0x3e, 0x4f, 0xd5, 0xcf, 0x3e, 0xad, 0x30,
    0x8e, 0x3d, 0x09, 0x29, 0xb5, 0x3e, 0x92, 0x3c, 0x6c, 0x3e,
    0xfe, 0x50, 0xc3, 0x3e, 0x18, 0x48, 0xa2, 0xbc, 0x8d, 0xf9,
    0xb0, 0x3c, 0xf6, 0x2e, 0xb4, 0xbd, 0xe4, 0x19, 0xb9, 0x3e,
    0x70, 0x04, 0x16, 0x3e, 0x3d, 0xea, 0x78, 0xbd, 0x40, 0x32,
    0x1e, 0x3e, 0x84, 0x74, 0xad, 0x3e, 0xc8, 0xda, 0x15, 0x3e,
    0x30, 0xc0, 0x84, 0xbd, 0xa0, 0xbd, 0x09, 0x3d, 0x30, 0x61,
    0x7d, 0x3d, 0xa8, 0x50, 0x90, 0xbd, 0xa8, 0xb5, 0xbc, 0x3d,
    0x44, 0x12, 0x38, 0xbe, 0x40, 0x1e, 0x5b, 0x3c, 0x08, 0x7f,
    0xde, 0xbd, 0x80, 0x7e, 0xf0, 0xbb, 0x40, 0x8a, 0xf3, 0xbd,
    0xd0, 0x9a, 0x7d, 0x3e, 0x08, 0x43, 0x63, 0x3e, 0x70, 0x4d,
    0x2f, 0x3e, 0xf8, 0x28, 0x74, 0xbe, 0x40, 0xa9, 0xfa, 0x3c,
    0x5c, 0x1a, 0x0c, 0xbe, 0x18, 0x3f, 0x72, 0xbe, 0xcc, 0x70,
    0x39, 0xbe, 0x20, 0x13, 0xb1, 0xbc, 0xa4, 0x04, 0x3b, 0xbe,
    0xd4, 0x49, 0x3f, 0x3e, 0x00, 0xbf, 0xbc, 0x3b, 0xd8, 0xc4,
    0x5a, 0xbe, 0xb8, 0xc5, 0xc0, 0x3d, 0xc0, 0xbc, 0xfc, 0xbd,
    0x70, 0x2b, 0x07, 0x3e, 0x40, 0xc0, 0x6d, 0xbd, 0x9c, 0x51,
    0x00, 0x3e, 0xd4, 0x00, 0x20, 0x3e, 0x4c, 0x38, 0x1a, 0xbe,
    0xd0, 0xf5, 0x82, 0xbd, 0xa4, 0x06, 0x74, 0xbe, 0xf0, 0x5e,
    0xdb, 0xbd, 0x58, 0xa2, 0xfd, 0xbd, 0xf0, 0x9f, 0xa5, 0xbd,
    0xa0, 0x05, 0x62, 0x3d, 0x80, 0x24, 0x28, 0x3d, 0x9c, 0xde,
    0x43, 0x3e, 0x80, 0xf2, 0x91, 0xbc, 0x00, 0x77, 0xab, 0x3b,
    0xac, 0x88, 0x4d, 0xbe, 0x70, 0x20, 0x46, 0x3d, 0x00, 0x66,
    0x9a, 0xbc, 0xc8, 0x24, 0xe7, 0xbd, 0xd4, 0x81, 0x62, 0xbe,
    0xdc, 0x83, 0x2a, 0xbe, 0x20, 0xd4, 0x6d, 0x3e, 0x50, 0x26,
    0x45, 0xbe, 0xa8, 0x98, 0xc7, 0x3d, 0x74, 0xb2, 0x17, 0xbe,
    0x5c, 0xca, 0x1a, 0x3e, 0x80, 0x8a, 0xad, 0xbc, 0x48, 0xd3,
    0x19, 0x3e, 0xa0, 0x67, 0x5f, 0xbd, 0x18, 0x00, 0x3f, 0x3e,
    0x88, 0x39, 0xae, 0xbd, 0xc0, 0x04, 0xa5, 0xbc, 0xe0, 0x95,
    0x8c, 0x3d, 0xb8, 0x9b, 0x28, 0xbe, 0x20, 0xa6, 0x62, 0xbe,
    0xe8, 0x32, 0x1b, 0xbe, 0x80, 0x09, 0x68, 0x3c, 0x28, 0xaa,
    0x29, 0x3e, 0x5f, 0x30, 0x69, 0xbc, 0x54, 0xb6, 0x88, 0xbe,
    0xb9, 0x73, 0x02, 0x3e, 0x5d, 0x9e, 0x0a, 0xbe, 0x2b, 0x30,
    0x32, 0xbe, 0x35, 0xe7, 0x41, 0xbe, 0x5d, 0x69, 0xea, 0xbd,
    0x09, 0xa0, 0xac, 0xbd, 0x52, 0xc9, 0x6e, 0x3e, 0xf6, 0x56,
    0x87, 0x3e, 0x42, 0xfc, 0x18, 0xbe, 0xf2, 0x34, 0xe5, 0x3c,
    0x1e, 0x42, 0x99, 0xbe, 0x50, 0x3a, 0xcc, 0xbe, 0xe5, 0x3e,
    0x55, 0xbe, 0x84, 0x9a, 0x18, 0x3e, 0xf9, 0x78, 0xd5, 0x3e,
    0x99, 0xdc, 0x57, 0x3e, 0x8d, 0x05, 0x67, 0x3d, 0x0b, 0xc3,
    0x85, 0xbe, 0x27, 0x5f, 0x0f, 0x3d, 0xba, 0x09, 0x49, 0xbe,
    0x58, 0xc2, 0x2e, 0x3e, 0xf6, 0xde, 0xe3, 0x3d, 0x0a, 0x0e,
    0xea, 0xbb, 0xf6, 0xfe, 0x80, 0x3c, 0x5a, 0x1f, 0x58, 0x3e,
    0x16, 0xa6, 0x75, 0x3c, 0xb1, 0x16, 0x87, 0x3e, 0x1f, 0x5c,
    0xa4, 0xbd, 0xc3, 0x83, 0x71, 0x3e, 0x0c, 0xe7, 0xd7, 0x3d,
    0x80, 0x96, 0x3c, 0x3e, 0xa9, 0x8c, 0xca, 0xbc, 0x66, 0x13,
    0x6f, 0x3e, 0xc7, 0x63, 0x78, 0x3e, 0x39, 0x44, 0x1f, 0x3e,
    0x42, 0xbd, 0x5d, 0x3e, 0xd4, 0xe1, 0x78, 0x3d, 0x5e, 0x3d,
    0xd2, 0xbc, 0x2e, 0x87, 0xde, 0x3e, 0xd0, 0x76, 0x5b, 0x3e,
    0xc6, 0x48, 0x25, 0x3e, 0xd3, 0x08, 0x23, 0xbe, 0x33, 0x8e,
    0x7b, 0xbe, 0x3c, 0xcd, 0xcf, 0xbe, 0x31, 0xc8, 0xa3, 0xbe,
    0x5f, 0x2c, 0x10, 0xbe, 0x25, 0xd2, 0xd0, 0x3e, 0xc2, 0xd1,
    0x47, 0x3e, 0xea, 0xbc, 0x54, 0xbd, 0x98, 0x52, 0x99, 0x3c,
    0xea, 0x47, 0x7c, 0xbe, 0x0b, 0x4c, 0x53, 0xbd, 0x0f, 0x66,
    0xa7, 0xbe, 0xdb, 0x4e, 0xb3, 0xbe, 0xd8, 0x1c, 0xa4, 0x3e,
    0x7a, 0x48, 0x7b, 0x3e, 0x9a, 0x83, 0x58, 0x3e, 0x1a, 0xa8,
    0x4d, 0x3e, 0xa1, 0xfa, 0xa3, 0x3e, 0x20, 0x43, 0x0a, 0x3e,
    0xeb, 0xc1, 0xae, 0x3e, 0x82, 0x5a, 0xb4, 0x3d, 0x60, 0x17,
    0x86, 0x3c, 0x90, 0x27, 0xdc, 0xbd, 0x60, 0x86, 0x80, 0xbd,
    0xe0, 0x85, 0x8f, 0x3d, 0x04, 0x52, 0x27, 0xbe, 0x38, 0x0d,
    0x0d, 0x3e, 0xd8, 0xee, 0xfb, 0x3d, 0x98, 0x04, 0xce, 0x3d,
    0x80, 0xb9, 0x4a, 0xbc, 0xd8, 0xfc, 0x59, 0xbe, 0xe8, 0x34,
    0x5f, 0x3e, 0xd8, 0xc5, 0xc7, 0xbd, 0x24, 0x2e, 0x73, 0xbe,
    0x40, 0x88, 0xbf, 0x3d, 0x64, 0x46, 0x5f, 0xbe, 0xa0, 0x17,
    0xca, 0x3d, 0x30, 0xdb, 0x27, 0xbd, 0x1c, 0x67, 0x53, 0xbe,
    0xfc, 0xaf, 0x0b, 0x3e, 0x40, 0xd8, 0x3a, 0x3c, 0x5c, 0x99,
    0x55, 0x3e, 0x84, 0xe8, 0x34, 0xbe, 0x00, 0x40, 0x84, 0xb9,
    0xf4, 0x4d, 0x5a, 0x3e, 0x00, 0x25, 0xc5, 0x3c, 0xc0, 0xbe,
    0x5b, 0xbc, 0x7c, 0xc3, 0x39, 0xbe, 0xd8, 0xeb, 0x97, 0xbd,
    0x60, 0xef, 0xc1, 0xbd, 0x58, 0x64, 0xa9, 0xbd, 0xe0, 0xf8,
    0x36, 0x3d, 0x80, 0x47, 0x34, 0x3c, 0x14, 0x7a, 0x0b, 0xbe,
    0x5c, 0xc9, 0x41, 0x3e, 0xd0, 0xfc, 0x46, 0xbe, 0x10, 0x3b,
    0xe2, 0x3d, 0xe0, 0x9a, 0x78, 0x3e, 0x48, 0x95, 0xfd, 0xbd,
    0x00, 0xfe, 0xf8, 0xba, 0x08, 0x41, 0xc0, 0x3d, 0x20, 0x0d,
    0x0d, 0xbe, 0x60, 0xe1, 0xe6, 0xbd, 0xd0, 0xfc, 0xed, 0xbd,
    0x50, 0xa4, 0xe6, 0xbd, 0x50, 0xda, 0x26, 0xbe, 0x20, 0x8a,
    0x64, 0xbe, 0xa0, 0xe8, 0x9f, 0x3c, 0x00, 0x13, 0xa8, 0xbb,
    0x48, 0x73, 0x74, 0x3e, 0x30, 0x1b, 0x1b, 0x3e, 0xc8, 0xf5,
    0x69, 0xbe, 0xec, 0x97, 0x5a, 0xbe, 0x6c, 0xec, 0x06, 0xbe,
    0x00, 0x65, 0x11, 0x3c, 0x34, 0xa9, 0x75, 0x3e, 0x20, 0xc7,
    0x07, 0x3d, 0x00, 0xa4, 0x50, 0xbe, 0xa4, 0x2a, 0x48, 0xbe,
    0x3c, 0xe7, 0x10, 0xbe, 0xfc, 0xa1, 0x58, 0xbe, 0x40, 0x37,
    0x61, 0x3e, 0xe0, 0x43, 0x9e, 0x3c, 0x3c, 0xeb, 0x36, 0x3e,
    0x40, 0x07, 0x3a, 0x3c, 0xd8, 0x9b, 0xa2, 0xbc, 0x1e, 0x78,
    0x4f, 0xbd, 0x2e, 0xda, 0x5b, 0x3e, 0x20, 0x4b, 0x5b, 0xbe,
    0x86, 0x5c, 0x70, 0x3d, 0x6f, 0x9a, 0xc4, 0x3d, 0x99, 0xc3,
    0x6b, 0x3e, 0xe3, 0x23, 0x89, 0x3d, 0xd9, 0xe4, 0xe7, 0xbd,
    0x20, 0x01, 0x83, 0xbd, 0x04, 0x32, 0x74, 0xbe, 0x5d, 0x82,
    0x70, 0xbd, 0x31, 0x14, 0xb5, 0x3d, 0xca, 0xa9, 0x93, 0xbd,
    0xe6, 0x39, 0x4f, 0xbd, 0xe6, 0x57, 0x56, 0x3e, 0xfe, 0x1c,
    0x44, 0x3e, 0xb0, 0xa1, 0xb6, 0x3d, 0x1f, 0x3b, 0x6d, 0xbe,
    0xfd, 0xd5, 0x86, 0xbe, 0xc3, 0xc3, 0xf8, 0xbd, 0x2f, 0x10,
    0x59, 0xbe, 0xb1, 0xc9, 0x62, 0xbd, 0x13, 0xf3, 0xc1, 0x3d,
    0xa6, 0xf8, 0x06, 0x3e, 0x27, 0x04, 0x90, 0x3d, 0xca, 0x29,
    0x41, 0xbe, 0xdd, 0xfa, 0x57, 0xbc, 0xfc, 0xcc, 0xa9, 0x3c,
    0xd5, 0x4b, 0x81, 0xbc, 0x9d, 0x43, 0x60, 0x3e, 0x0b, 0xb3,
    0xc1, 0x3d, 0xe9, 0x1a, 0x62, 0xbe, 0x3b, 0x05, 0xaf, 0x3d,
    0xf7, 0xb4, 0x7f, 0xbe, 0x06, 0x4b, 0x19, 0x3e, 0x3e, 0x93,
    0xe9, 0x3b, 0x78, 0x10, 0x17, 0x3e, 0xb3, 0xac, 0x9b, 0xbd,
    0x00, 0xc3, 0x77, 0xbe, 0x44, 0x24, 0x40, 0xbd, 0xc9, 0x6c,
    0x13, 0x3e, 0x6d, 0x55, 0x67, 0xbe, 0x7e, 0x3c, 0xb4, 0xbd,
    0xce, 0x72, 0xff, 0xbd, 0xd4, 0xfb, 0x7b, 0x3d, 0xab, 0xb8,
    0xc9, 0xbd, 0xb0, 0x11, 0x03, 0x3e, 0x7a, 0x8c, 0xfa, 0xbd,
    0x6f, 0x8c, 0x32, 0xbd, 0x60, 0x4c, 0x0f, 0x3e, 0x05, 0x48,
    0x3d, 0x3d, 0x7c, 0x00, 0x07, 0xbe, 0x12, 0x2c, 0x75, 0x3d,
    0x55, 0x36, 0xd4, 0xbc, 0x03, 0x6b, 0x97, 0x3b, 0x84, 0xf4,
    0x7e, 0xbe, 0xbb, 0x2d, 0x78, 0xbe, 0x1c, 0xa1, 0x33, 0xbe,
    0xe1, 0x6f, 0x46, 0x3d, 0x48, 0xdd, 0x1c, 0xbe, 0xe1, 0xcf,
    0xbc, 0x3c, 0x31, 0x95, 0x5f, 0x3e, 0x4c, 0xd0, 0x6a, 0x3e,
    0x2f, 0x47, 0xb8, 0xbb, 0x02, 0xb0, 0xf9, 0xbd, 0x2d, 0x10,
    0x43, 0x3d, 0x90, 0x38, 0xd9, 0x3d, 0x34, 0x01, 0xea, 0x3d,
    0x78, 0x5d, 0xc1, 0x3d, 0xa3, 0x56, 0x95, 0xbd, 0xff, 0xff,
    0xdf, 0x3c, 0x5b, 0x7b, 0x46, 0xbd, 0xc6, 0xd0, 0x43, 0x3e,
    0xc2, 0xb0, 0x4c, 0xbe, 0x18, 0xc6, 0x41, 0xbd, 0x73, 0xb6,
    0x82, 0xbd, 0xac, 0xd9, 0xd2, 0x3d, 0x37, 0x61, 0x43, 0x3e,
    0x9e, 0x0f, 0x57, 0xbd, 0x72, 0x64, 0x49, 0x3e, 0x82, 0x0b,
    0x35, 0x3e, 0x68, 0x0d, 0x4e, 0x3d, 0x1c, 0x8f, 0x7c, 0xbe,
    0x12, 0x17, 0xa4, 0xbd, 0xa2, 0xd6, 0xca, 0xbd, 0x33, 0x3c,
    0x2e, 0xbe, 0x73, 0xbe, 0x6d, 0xbe, 0x8f, 0xa9, 0x9c, 0x3d,
    0xb6, 0xed, 0x8d, 0xbd, 0xbe, 0x56, 0xec, 0xbd, 0x04, 0x4b,
    0x60, 0x3e, 0x90, 0x60, 0x52, 0x3e, 0x03, 0xb3, 0xea, 0xbd,
    0x0f, 0xad, 0x10, 0xbe, 0xc4, 0x6c, 0x7a, 0x3c, 0x40, 0x7e,
    0x63, 0xbd, 0xc9, 0x2b, 0x38, 0x3e, 0xbc, 0x5a, 0x81, 0xbe,
    0x59, 0xcd, 0x3e, 0x3e, 0xa6, 0xd0, 0xde, 0x3b, 0x1e, 0xdb,
    0xba, 0xbd, 0x6a, 0x06, 0x8d, 0x3d, 0xe2, 0x85, 0x22, 0xbd,
    0x12, 0xf8, 0x78, 0xbd, 0x36, 0x86, 0xda, 0xbd, 0x86, 0xa6,
    0x1c, 0xbe, 0x22, 0xfb, 0x71, 0xbe, 0xaa, 0x14, 0x55, 0x3e,
    0x5c, 0xf2, 0x39, 0xbd, 0xef, 0x41, 0xc3, 0x3d, 0x49, 0xa8,
    0x29, 0xbe, 0x0b, 0xf9, 0x3d, 0xbe, 0xdf, 0xfe, 0x84, 0x3d,
    0xbb, 0x22, 0x5b, 0x3e, 0x7d, 0x13, 0x0f, 0xbe, 0xb0, 0xa5,
    0xd9, 0xbd, 0x74, 0x91, 0x86, 0xbd, 0x22, 0x15, 0x75, 0xbe,
    0x07, 0x3c, 0x5d, 0xbe, 0x74, 0x0c, 0x96, 0xbd, 0xbf, 0xde,
    0x13, 0xbb, 0x77, 0x8e, 0x01, 0xbe, 0xd9, 0x0d, 0xe6, 0xbc,
    0x78, 0x84, 0x9d, 0x3d, 0x6b, 0x1b, 0xac, 0xbc, 0xe8, 0xc3,
    0x18, 0x3e, 0x91, 0x16, 0x04, 0x3d, 0x0d, 0x40, 0xf3, 0xbd,
    0xab, 0xf6, 0x73, 0xbd, 0xe3, 0x4d, 0x4c, 0x3e, 0xa4, 0xb7,
    0x97, 0x3b, 0xd0, 0x39, 0x5d, 0x3e, 0x88, 0xc9, 0x9f, 0x3d,
    0xb0, 0x3e, 0xce, 0xbb, 0xbd, 0x20, 0x6d, 0x3c, 0xd4, 0xd7,
    0x5d, 0x3e, 0xa9, 0xbf, 0xac, 0x3e, 0x37, 0x08, 0x77, 0x3e,
    0x20, 0x64, 0x8b, 0xbe, 0xb8, 0xdc, 0x1e, 0x3e, 0x58, 0x24,
    0x81, 0x3e, 0x96, 0xe7, 0xd2, 0xbd, 0xdb, 0x42, 0x00, 0xbe,
    0xa3, 0x45, 0x18, 0x3e, 0x0c, 0x1c, 0xad, 0x3e, 0x8c, 0xf3,
    0x84, 0x3e, 0x85, 0x1c, 0x0f, 0xbc, 0x32, 0x5b, 0x30, 0xbe,
    0x0f, 0xb6, 0x8f, 0x3d, 0xf0, 0x31, 0x7b, 0x3d, 0xe8, 0x4d,
    0x65, 0x3e, 0x97, 0x94, 0x74, 0xbc, 0xf8, 0x5d, 0x89, 0x3e,
    0x0d, 0x60, 0xd4, 0x3e, 0x00, 0xc8, 0xaf, 0x36, 0xef, 0x52,
    0x2f, 0x3d, 0xf0, 0xb2, 0x9b, 0x3d, 0xf7, 0xbd, 0xc7, 0x3e,
    0x23, 0x20, 0x59, 0x3e, 0x2d, 0xea, 0xc1, 0x3e, 0x9e, 0xc2,
    0x6c, 0x3c, 0x19, 0x25, 0x0a, 0x3e, 0xc8, 0x73, 0xba, 0x3c,
    0xe3, 0x83, 0x83, 0x3e, 0xee, 0xb6, 0x0b, 0xbd, 0xf6, 0xb5,
    0xc3, 0x3e, 0xf8, 0xfd, 0x98, 0x3e, 0xe4, 0x4c, 0xc3, 0x3e,
    0x03, 0x12, 0xf1, 0xbd, 0xf8, 0x1c, 0x8d, 0xbd, 0x5e, 0xf9,
    0x4a, 0x3d, 0x4d, 0xd8, 0x7f, 0x3e, 0x18, 0xf0, 0xae, 0x3e,
    0xb5, 0x11, 0x88, 0x3d, 0x7e, 0x43, 0xa4, 0x3e, 0x01, 0x92,
    0xc4, 0x3d, 0x44, 0xd1, 0xc5, 0xbe, 0x61, 0x34, 0x7c, 0xbe,
    0xcf, 0x92, 0xea, 0xbd, 0x84, 0x1e, 0xfd, 0x3d, 0xec, 0x3f,
    0x5e, 0x3d, 0x9c, 0xfc, 0x90, 0xbe, 0x35, 0x8c, 0x1d, 0xbe,
    0x4c, 0x7d, 0x0f, 0xbd, 0x72, 0xb1, 0x8e, 0xbd, 0xae, 0x69,
    0x9c, 0xbe, 0xea, 0x0d, 0x99, 0xbe, 0x89, 0x30, 0xf4, 0xbd,
    0xfc, 0x07, 0xd0, 0xbe, 0xf3, 0xf7, 0x0c, 0x3d, 0xb5, 0x25,
    0xb3, 0x3d, 0x1e, 0x00, 0x0b, 0xbe, 0x2e, 0xd3, 0x87, 0xbe,
    0xb8, 0xd0, 0xd6, 0xbc, 0xed, 0x52, 0xc9, 0x3d, 0xfb, 0x7c,
    0xcf, 0xbd, 0xdf, 0x19, 0x70, 0xbe, 0x1c, 0x2c, 0x44, 0xbd,
    0xbc, 0xa3, 0x98, 0x3e, 0x12, 0x65, 0x71, 0xbe, 0x9e, 0xac,
    0xa1, 0xbe, 0xb1, 0x0e, 0x25, 0xbe, 0x69, 0xfa, 0x8b, 0xbc,
    0xc3, 0x95, 0x19, 0xbe, 0x91, 0x24, 0x15, 0x3d, 0x18, 0xa1,
    0xe9, 0xbd, 0x63, 0xa2, 0xcc, 0x3d, 0x64, 0x9b, 0x7e, 0xbe,
    0x70, 0xef, 0xd9, 0xbd, 0xb4, 0x17, 0x31, 0x3d, 0x66, 0xbc,
    0x77, 0x3b, 0x7f, 0x67, 0x75, 0xbe, 0x7d, 0xe0, 0x26, 0xbe,
    0xef, 0x4b, 0x03, 0x3d, 0xc8, 0x48, 0xb3, 0x3e, 0x2f, 0x80,
    0xf4, 0x3d, 0x64, 0x7d, 0xd3, 0x3d, 0xfc, 0x5d, 0x48, 0x3e,
    0xe6, 0xa8, 0xfd, 0xbd, 0x80, 0x5e, 0x16, 0x3e, 0x4e, 0x82,
    0x70, 0x3d, 0x23, 0x26, 0xe7, 0x3c, 0x99, 0xaf, 0x88, 0x3e,
    0x15, 0x72, 0x77, 0x3e, 0x26, 0xac, 0x83, 0x3e, 0xc6, 0xc8,
    0x13, 0x3e, 0x96, 0x29, 0xac, 0x3d, 0x71, 0x10, 0xe6, 0x3d,
    0x25, 0xe0, 0x43, 0x3e, 0xad, 0x8b, 0x9b, 0x3e, 0xe0, 0xef,
    0x81, 0x3e, 0x0e, 0xb9, 0x73, 0x3e, 0x86, 0x82, 0xfa, 0xbb,
    0x69, 0xa7, 0x55, 0xbe, 0xeb, 0xd1, 0x27, 0x3e, 0x5d, 0xcb,
    0xf4, 0xbc, 0x77, 0x9b, 0x29, 0x3e, 0xb1, 0x9c, 0xa1, 0x3e,
    0xfc, 0xf7, 0xc2, 0x3e, 0xea, 0x37, 0x82, 0xbe, 0x11, 0xb2,
    0xfb, 0xbd, 0x71, 0x39, 0xbe, 0xbd, 0x2c, 0x69, 0xb1, 0xbd,
    0x3c, 0x33, 0x8d, 0xba, 0x01, 0x5e, 0x3a, 0x3e, 0x16, 0x0b,
    0x6b, 0x3e, 0x4d, 0x91, 0x6c, 0x3d, 0xee, 0x2b, 0x43, 0xbe,
    0x10, 0xd5, 0x74, 0xbe, 0x17, 0x51, 0x02, 0xbe, 0x06, 0x3d,
    0x88, 0xbb, 0x4c, 0x01, 0x13, 0xbe, 0x67, 0x6b, 0xaa, 0xbd,
    0x5b, 0x19, 0x4e, 0xbd, 0x09, 0x40, 0x76, 0x3e, 0x69, 0xa9,
    0x45, 0xbd, 0x6c, 0xbf, 0xa8, 0xbd, 0x28, 0x04, 0x62, 0xbe,
    0xe7, 0x5a, 0x4f, 0x3e, 0xf7, 0xc7, 0x70, 0xbe, 0x08, 0x34,
    0xbe, 0xbc, 0xaa, 0x6d, 0xf8, 0x3c, 0x4f, 0x5b, 0x51, 0xbe,
    0xdd, 0x14, 0x9a, 0xbd, 0x0e, 0x12, 0x92, 0xbc, 0xc8, 0xf4,
    0x67, 0xbe, 0xa5, 0x29, 0x39, 0x3d, 0x6d, 0xb6, 0x62, 0xbe,
    0xff, 0xc6, 0x96, 0xbd, 0x18, 0x35, 0x3c, 0x3e, 0x97, 0xf2,
    0x41, 0xbd, 0x1e, 0x25, 0x4d, 0xbe, 0x65, 0xa2, 0x9c, 0x3d,
    0x40, 0x08, 0x4d, 0x3e, 0x48, 0x38, 0x0a, 0x3a, 0x67, 0xf2,
    0x3c, 0x3e, 0x58, 0x4d, 0x09, 0xbd, 0xea, 0xd0, 0xe2, 0x3d,
    0x1a, 0x1e, 0x97, 0x3d, 0x4e, 0xeb, 0x40, 0x3e, 0xbc, 0xee,
    0x97, 0xbd, 0xfd, 0xea, 0x21, 0x3e, 0xa3, 0xf7, 0x57, 0xbb,
    0xef, 0x45, 0xc7, 0xbc, 0x6a, 0x5b, 0xff, 0x3d, 0x46, 0x1b,
    0x50, 0x3d, 0x28, 0x3a, 0xdb, 0x3d, 0x93, 0xd3, 0x6d, 0xbe,
    0xbe, 0x75, 0x67, 0xbe, 0xfc, 0xec, 0x35, 0xbe, 0x1e, 0xe9,
    0x8c, 0xbd, 0x02, 0x48, 0x82, 0x3d, 0xe2, 0x30, 0xc5, 0x3d,
    0x4e, 0xa9, 0xc8, 0xbc, 0xaa, 0x63, 0x3e, 0xbe, 0x1d, 0x77,
    0x04, 0x3e, 0xe2, 0x89, 0x66, 0xbe, 0x52, 0x8d, 0xaf, 0x3d,
    0xbb, 0x6f, 0x4f, 0x3e, 0x8d, 0xb9, 0x25, 0x3e, 0x6a, 0x04,
    0x31, 0xbe, 0xbd, 0x42, 0x93, 0xbd, 0x00, 0x6b, 0x4a, 0x3b,
    0x23, 0x82, 0x2a, 0x3d, 0x39, 0x22, 0x39, 0xbe, 0xfc, 0xdc,
    0x27, 0xbd, 0xea, 0x1c, 0x7d, 0xbd, 0xe1, 0x1f, 0x5a, 0x3e,
    0xc6, 0xcf, 0x3b, 0xbe, 0xf6, 0x15, 0x54, 0xbe, 0x1b, 0xfb,
    0xcf, 0x3d, 0x14, 0xf3, 0xb4, 0x3c, 0x91, 0xcb, 0x7b, 0xbe,
    0xe8, 0xa2, 0x14, 0x3e, 0x86, 0xd4, 0x67, 0xbe, 0x4e, 0xe9,
    0x28, 0xbd, 0x1e, 0x70, 0x8d, 0x3b, 0xfd, 0xab, 0xd1, 0xbd,
    0xac, 0x02, 0x61, 0xbe, 0x60, 0x06, 0x29, 0xbe, 0xad, 0xaf,
    0x73, 0xbe, 0x26, 0xf7, 0x71, 0x3b, 0x2d, 0x49, 0x34, 0xbe,
    0xb3, 0x82, 0x2a, 0x3e, 0x68, 0xa1, 0xf9, 0x3d, 0x04, 0x26,
    0x02, 0xbe, 0x18, 0x9c, 0x9c, 0x3c, 0x29, 0x96, 0x00, 0xbe,
    0xdc, 0xd6, 0x54, 0x3d, 0x01, 0x6f, 0x3b, 0xbe, 0x1c, 0x0c,
    0xf4, 0xbc, 0xfa, 0x07, 0x00, 0xbe, 0x9c, 0xb3, 0x29, 0xbe,
    0xd3, 0x51, 0x68, 0x3e, 0x15, 0x83, 0xba, 0xbd, 0x44, 0x6b,
    0xd2, 0x3c, 0x1b, 0xbf, 0x49, 0x3e, 0x3f, 0x90, 0xcb, 0xbd,
    0xf5, 0x93, 0xad, 0x3d, 0x52, 0x8c, 0x89, 0x3d, 0x76, 0x66,
    0x7a, 0xbd, 0x61, 0x5f, 0xb1, 0xbd, 0xc0, 0xcb, 0x5d, 0xbe,
    0x51, 0x53, 0x12, 0xbe, 0xa5, 0xb0, 0x02, 0x3e, 0xb1, 0xc0,
    0x68, 0xbe, 0xa5, 0x04, 0x42, 0x3e, 0xb1, 0x83, 0x0d, 0xbe,
    0x22, 0x04, 0x7e, 0xbe, 0xb9, 0x52, 0x11, 0xbd, 0x62, 0xb7,
    0x78, 0xbe, 0xf0, 0xbb, 0x61, 0xbe, 0x26, 0x75, 0xc2, 0xbd,
    0x1b, 0x29, 0x08, 0xbe, 0x67, 0xee, 0xe6, 0xbd, 0xcc, 0x8d,
    0x3f, 0x3e, 0x07, 0x0e, 0x07, 0x3d, 0x54, 0x02, 0x61, 0x3e,
    0x3a, 0x50, 0xbb, 0x3b, 0xc0, 0x52, 0x0e, 0xbe, 0xa5, 0xcd,
    0x79, 0x3d, 0x01, 0x11, 0x50, 0x3e, 0xc8, 0x7e, 0x4e, 0x3e,
    0x76, 0xcf, 0x16, 0x3e, 0x51, 0x27, 0x43, 0x3d, 0xee, 0xef,
    0x5d, 0xbd, 0xe3, 0xea, 0xc0, 0xbc, 0x18, 0x6c, 0x2a, 0x3e,
    0xa0, 0x77, 0xdc, 0x3d, 0x79, 0x41, 0x80, 0xbc, 0xd6, 0xa4,
    0x74, 0xbe, 0x1c, 0xdc, 0x6b, 0x3e, 0xed, 0xba, 0x76, 0xbd,
    0xf2, 0x0a, 0x22, 0xba, 0xe9, 0xb8, 0x09, 0x3e, 0x1a, 0xc3,
    0xea, 0xbd, 0x0a, 0xab, 0x5a, 0xbd, 0xb4, 0xbc, 0xdb, 0xbc,
    0xf5, 0x8c, 0x71, 0x3e, 0x32, 0x13, 0x7e, 0xbe, 0xe8, 0x3a,
    0x0f, 0x3e, 0x99, 0x43, 0x70, 0xbc, 0x0b, 0x53, 0x0d, 0xbe,
    0xe0, 0x08, 0x62, 0xbe, 0x66, 0x4c, 0x28, 0xbc, 0x27, 0x25,
    0x2f, 0x3c, 0x0f, 0x2d, 0x12, 0x3e, 0x89, 0x21, 0xd8, 0x3b,
    0x96, 0x8a, 0x76, 0xbe, 0x1b, 0x7c, 0xa9, 0x3b, 0x4a, 0xa4,
    0xef, 0x3c, 0x3c, 0xf5, 0x7a, 0xbe, 0x44, 0x53, 0xed, 0xbd,
    0x62, 0xcf, 0x26, 0xbe, 0xc8, 0xab, 0x36, 0xbe, 0x65, 0x85,
    0x50, 0xba, 0xff, 0x7e, 0x64, 0xbe, 0xa4, 0xa6, 0xe5, 0xbd,
    0x8e, 0x99, 0xbf, 0xbd, 0xb8, 0xdb, 0x7a, 0xbd, 0xa7, 0xf1,
    0x39, 0x3e, 0xc5, 0xdf, 0x46, 0x3c, 0xdc, 0x15, 0xf2, 0xbd,
    0x10, 0x84, 0x72, 0xbe, 0xb3, 0xf6, 0xb3, 0x3d, 0xcc, 0xb5,
    0x72, 0xbe, 0xa0, 0x95, 0x6b, 0xbd, 0xf0, 0x24, 0xf4, 0xbd,
    0xf9, 0x68, 0x7c, 0x3d, 0x2a, 0xb0, 0xb7, 0xbd, 0xb9, 0x44,
    0x74, 0x3e, 0xba, 0xca, 0x72, 0xbb, 0xa5, 0xf2, 0x17, 0x3d,
    0x3a, 0xcf, 0x36, 0x3e, 0xc0, 0x5c, 0x52, 0xbd, 0x6e, 0xce,
    0x68, 0xbc, 0xb9, 0x73, 0xc7, 0x3d, 0x06, 0xe6, 0x63, 0x3c,
    0xad, 0x83, 0xcc, 0x3d, 0xb4, 0x52, 0xf0, 0xbd, 0xde, 0xd5,
    0x5e, 0x3e, 0xe2, 0xee, 0xe0, 0x3b, 0x30, 0x33, 0x70, 0x3e,
    0xf2, 0x9f, 0x33, 0x3e, 0x6f, 0x22, 0x72, 0x3e, 0xdc, 0x40,
    0x80, 0x3d, 0xc0, 0x2d, 0x27, 0xbe, 0xbd, 0xa0, 0x35, 0xbe,
    0x81, 0x21, 0x54, 0xbe, 0x52, 0x78, 0x08, 0xbd, 0xfb, 0xb2,
    0xab, 0xbd, 0x6f, 0x35, 0xfe, 0xbd, 0xac, 0x66, 0x11, 0x3e,
    0x25, 0x9d, 0x12, 0xbe, 0xa3, 0xde, 0x17, 0x3e, 0x9d, 0x33,
    0x2e, 0xbe, 0xfd, 0x86, 0x37, 0x3e, 0x5b, 0xec, 0x69, 0xbe,
    0x9b, 0x1f, 0x4a, 0xbe, 0x74, 0xf8, 0x1c, 0x3e, 0xa2, 0x7d,
    0x1c, 0xbd, 0xd3, 0x48, 0x2e, 0x3e, 0x21, 0x63, 0x34, 0x3e,
    0x1f, 0x1c, 0x77, 0xbb, 0x53, 0x5c, 0x03, 0x3e, 0x9e, 0xc8,
    0x6d, 0xbe, 0x79, 0xbf, 0x98, 0xbd, 0x9c, 0xad, 0xe6, 0x3d,
    0x53, 0xd5, 0xad, 0xbe, 0x07, 0xcc, 0x65, 0xbe, 0xa2, 0x47,
    0x04, 0xbe, 0x85, 0x6f, 0xee, 0xbc, 0xf3, 0x55, 0x70, 0xbe,
    0x27, 0x79, 0xf5, 0x3d, 0x9f, 0x0f, 0xac, 0x3e, 0x0a, 0x52,
    0x18, 0xbe, 0x0a, 0x4f, 0x8e, 0xbe, 0x9a, 0x3b, 0x81, 0xbe,
    0xf7, 0x14, 0xb1, 0xbd, 0x83, 0x9f, 0x19, 0x3d, 0xcf, 0x6c,
    0x07, 0xbe, 0x75, 0x40, 0x0a, 0xbe, 0xaa, 0x41, 0x9c, 0x3d,
    0x82, 0x66, 0xa3, 0x3d, 0xea, 0xed, 0x89, 0xbe, 0x12, 0xb5,
    0x0b, 0xbe, 0x5d, 0xfe, 0xaf, 0xbe, 0x31, 0xb4, 0x83, 0xbe,
    0xbb, 0x5b, 0x4c, 0xbe, 0x94, 0x89, 0xea, 0xbc, 0xc0, 0x9b,
    0xd2, 0x3e, 0xe6, 0xc2, 0x8a, 0x3e, 0xeb, 0x8d, 0x97, 0xbd,
    0xa1, 0xac, 0x07, 0x3e, 0xc7, 0x96, 0x83, 0x3d, 0x61, 0xdd,
    0xb6, 0xbd, 0x1f, 0xc3, 0x8c, 0x3e, 0xba, 0xf7, 0x57, 0x3d,
    0x91, 0x62, 0x9c, 0x3e, 0xcf, 0xda, 0xd8, 0x3e, 0xe8, 0xbe,
    0xa8, 0xbd, 0x0c, 0x32, 0x56, 0xbd, 0x8b, 0x4b, 0x6f, 0x3e,
    0x9a, 0x4a, 0x95, 0x3d, 0x85, 0x5b, 0x7f, 0xbd, 0x26, 0xd7,
    0xd4, 0xbb, 0xba, 0xbc, 0x9a, 0x3d, 0x19, 0x1d, 0x8a, 0xbc,
    0xd9, 0xe1, 0x3e, 0x3e, 0xa3, 0x3c, 0x3b, 0xbe, 0x10, 0x26,
    0x37, 0xbe, 0xec, 0xd8, 0x13, 0xbe, 0x55, 0x0d, 0x85, 0x3e,
    0xf8, 0xe6, 0xb5, 0x3e, 0x7d, 0xe4, 0xd9, 0x3e, 0x69, 0x05,
    0x2b, 0x3e, 0x37, 0x5a, 0xd8, 0x3d, 0x40, 0x28, 0xa9, 0xbd,
    0xc0, 0x43, 0xa0, 0x3d, 0xd8, 0xc5, 0x3a, 0x3e, 0xcc, 0x2f,
    0x85, 0x3e, 0x2a, 0x1d, 0x75, 0x3d, 0xf8, 0xad, 0x5d, 0x3d,
    0x67, 0x90, 0x95, 0xbe, 0xbc, 0x43, 0x88, 0xbe, 0xa5, 0xf3,
    0x98, 0x3d, 0x80, 0xe1, 0x9f, 0xbe, 0x79, 0x93, 0x89, 0xbe,
    0xdb, 0x36, 0x25, 0x3e, 0x40, 0xc0, 0xaf, 0x3e, 0x39, 0x6e,
    0x4d, 0x3e, 0x11, 0xf8, 0x24, 0xbe, 0x30, 0xdf, 0x7c, 0x3e,
    0x43, 0x1e, 0xa8, 0x3d, 0x7c, 0x0c, 0xc8, 0xbc, 0x1b, 0xa1,
    0xd5, 0x3e, 0x26, 0x68, 0x11, 0x3e, 0x43, 0x7a, 0x10, 0xbe,
    0xc8, 0xb3, 0x0c, 0x3d, 0x33, 0x67, 0xb6, 0x3b, 0xf9, 0xd4,
    0x63, 0x3e, 0x1c, 0x28, 0xa4, 0x3e, 0x88, 0x3b, 0x7f, 0x3e,
    0x88, 0x66, 0xc5, 0x3e, 0x2b, 0x76, 0x93, 0x3e, 0xaa, 0x57,
    0x2b, 0xbd, 0x2c, 0x69, 0x30, 0x3d, 0x91, 0xee, 0xe1, 0xbb,
    0xe6, 0x37, 0xb3, 0xbd, 0xdc, 0x31, 0x64, 0xbd, 0xaa, 0xe5,
    0x49, 0xbe, 0x86, 0xcd, 0x89, 0x3d, 0xaa, 0x8b, 0x1e, 0x3d,
    0x73, 0x07, 0x3b, 0xbe, 0xab, 0x0c, 0x19, 0xbe, 0xe3, 0x4e,
    0x66, 0xbd, 0x19, 0x29, 0x33, 0xbe, 0xa2, 0xc9, 0x7c, 0x3e,
    0x22, 0x44, 0x53, 0xbe, 0x8d, 0xfd, 0x92, 0xbd, 0x5b, 0xa0,
    0x11, 0xbe, 0x32, 0x7f, 0xc9, 0x3d, 0x32, 0x88, 0x59, 0x3e,
    0xd1, 0x94, 0xcd, 0xbd, 0xfc, 0xc3, 0x63, 0xbe, 0xc8, 0xa2,
    0x8e, 0x3e, 0xca, 0xa6, 0x21, 0x3e, 0x0e, 0x8f, 0x49, 0xbc,
    0xf6, 0x38, 0x45, 0x3e, 0xb5, 0x84, 0x46, 0x3c, 0x2e, 0x32,
    0xa9, 0x3d, 0x46, 0x30, 0xa8, 0xbe, 0xe1, 0xa5, 0x8b, 0xbe,
    0xb4, 0xec, 0x03, 0x3e, 0xf1, 0x93, 0xb1, 0x3d, 0x2a, 0x6c,
    0xbd, 0x3e, 0xe9, 0xe2, 0x09, 0x3e, 0xed, 0x67, 0xa4, 0x3e,
    0xa4, 0xa2, 0xc8, 0x3d, 0xf5, 0x21, 0xe1, 0xbe, 0xa3, 0x53,
    0x17, 0xbe, 0x4d, 0xba, 0xe7, 0xbd, 0xfe, 0xf3, 0x9b, 0x3d,
    0x3f, 0x2e, 0x10, 0x3e, 0x87, 0x69, 0x79, 0xbe, 0xc4, 0x75,
    0x07, 0x3e, 0x83, 0xed, 0xc2, 0x3e, 0x35, 0x6b, 0xc2, 0xbb,
    0x2e, 0xc1, 0x99, 0xbe, 0x9d, 0xa2, 0xa3, 0xbe, 0x20, 0xa0,
    0xbb, 0xbd, 0x93, 0x9f, 0x79, 0xbc, 0x2c, 0x21, 0x8a, 0x3c,
    0x6a, 0xf3, 0xac, 0xbd, 0xe2, 0xb7, 0xb8, 0xbe, 0xec, 0x40,
    0x8a, 0x3c, 0x64, 0xe1, 0x46, 0x3d, 0xac, 0x94, 0x06, 0x3e,
    0xfa, 0x1e, 0x1a, 0x3e, 0x1b, 0x33, 0x86, 0x3e, 0x96, 0xa3,
    0x49, 0x3e, 0xad, 0x21, 0xbb, 0x3d, 0x7a, 0x07, 0x3b, 0xbd,
    0x54, 0xba, 0x8c, 0xbe, 0x53, 0x05, 0x81, 0x3e, 0x87, 0x28,
    0x97, 0x3e, 0xf3, 0x53, 0x1b, 0x3d, 0xaf, 0x53, 0x44, 0x3e,
    0x7a, 0xb6, 0x66, 0x3e, 0x04, 0xed, 0x94, 0x3e, 0x31, 0xfc,
    0x0d, 0x3e, 0xdf, 0x64, 0xcd, 0xbd, 0x82, 0x0e, 0x77, 0x3e,
    0xba, 0xca, 0x79, 0x3e, 0x9b, 0xc7, 0x82, 0x3e, 0x32, 0xe2,
    0xa2, 0x3d, 0xe7, 0x2c, 0x73, 0xbb, 0xc1, 0xf4, 0x54, 0xbb,
    0xe6, 0xf4, 0x94, 0x3d, 0x22, 0xc0, 0x11, 0xbe, 0xeb, 0x51,
    0x70, 0x3e, 0x38, 0xcc, 0xb7, 0x3e, 0x87, 0x65, 0x7f, 0x3e,
    0x42, 0xf6, 0x75, 0x3d, 0xad, 0x64, 0x9d, 0xbd, 0x04, 0xa5,
    0x2b, 0x3e, 0x3a, 0xb5, 0x9c, 0xbe, 0x37, 0x1f, 0xb0, 0x3d,
    0xa3, 0x6a, 0x6c, 0x3d, 0x08, 0x49, 0x02, 0x3e, 0x90, 0x95,
    0xb9, 0x3e, 0x7a, 0x3f, 0x0f, 0x3e, 0xe5, 0xf1, 0x64, 0x3e,
    0xdd, 0xcc, 0x7c, 0xbd, 0x24, 0xbf, 0x11, 0x3b, 0x45, 0x07,
    0x95, 0xbe, 0x3a, 0x27, 0xa5, 0x3e, 0xbf, 0xf6, 0xbd, 0x3e,
    0x03, 0xf6, 0x43, 0x3c, 0xa0, 0x95, 0x79, 0x3e, 0x01, 0x1b,
    0xdf, 0x3d, 0x1f, 0x61, 0x6b, 0x3e, 0x76, 0x1e, 0xea, 0xbd,
    0xb8, 0xca, 0x6d, 0x3e, 0xa5, 0x23, 0x52, 0x3e, 0x4b, 0x0c,
    0xe1, 0x3d, 0x2b, 0x43, 0xde, 0x3e, 0x7f, 0x45, 0xed, 0x3e,
    0xcb, 0xd5, 0x76, 0x3e, 0xac, 0x20, 0x9b, 0x3e, 0x4e, 0xa8,
    0xd5, 0x3d, 0xab, 0xc8, 0x80, 0x3d, 0xe0, 0xc0, 0x8c, 0x3e,
    0xa2, 0x57, 0xde, 0x3d, 0xb4, 0x47, 0x01, 0x3e, 0x6f, 0x52,
    0x6d, 0x3e, 0x43, 0xa2, 0x98, 0x3e, 0xa4, 0x3d, 0x10, 0xbd,
    0x0b, 0xd1, 0x85, 0x3e, 0x37, 0x76, 0x5b, 0x3e, 0xf8, 0xf1,
    0x22, 0x3e, 0x80, 0xd1, 0x4d, 0xbe, 0xfb, 0x82, 0x16, 0x3e,
    0x2f, 0xf8, 0x04, 0x3e, 0x85, 0xdc, 0x3c, 0xbe, 0x91, 0xa6,
    0x79, 0xbe, 0xf0, 0x28, 0x02, 0x3e, 0xdf, 0xd7, 0xc8, 0x3e,
    0x3d, 0x88, 0x84, 0x3e, 0x0b, 0xda, 0x11, 0xbc, 0x42, 0x29,
    0xb6, 0xbd, 0x88, 0xb1, 0x75, 0xbe, 0xdf, 0xa0, 0x88, 0xbe,
    0x8c, 0xc0, 0x76, 0x3c, 0x84, 0xe4, 0x00, 0x3d, 0x49, 0xb9,
    0x78, 0xbd, 0x42, 0xea, 0x0b, 0xbd, 0xa4, 0xe6, 0x3b, 0xbe,
    0x45, 0xfd, 0x60, 0xbe, 0x8a, 0x86, 0xa7, 0xbe, 0xd5, 0x29,
    0x4a, 0xbe, 0x7d, 0xd8, 0x19, 0x3e, 0x7b, 0x3d, 0xa6, 0x3e,
    0x13, 0xe5, 0x07, 0x3e, 0x5d, 0xa9, 0x94, 0x3e, 0x40, 0x77,
    0x4f, 0x3e, 0x59, 0xb1, 0x94, 0x3e, 0x6a, 0xab, 0x82, 0x3d,
    0xd3, 0x1b, 0x40, 0x3e, 0x62, 0x16, 0xdc, 0x3d, 0x67, 0xa3,
    0xc2, 0x3e, 0x0d, 0x4f, 0xe7, 0x3e, 0xcc, 0xc5, 0x01, 0xbd,
    0x12, 0x53, 0x92, 0xbc, 0x7a, 0xc1, 0x0d, 0xbd, 0xb3, 0xd8,
    0x56, 0xbd, 0x27, 0x12, 0x57, 0xbe, 0xfb, 0x6a, 0x8c, 0x3c,
    0xec, 0x63, 0x62, 0x3c, 0xe4, 0xb8, 0xed, 0xbc, 0x6a, 0xf7,
    0x1e, 0x3d, 0xa8, 0x37, 0x76, 0xbd, 0x02, 0xf0, 0x74, 0xbe,
    0x74, 0xa1, 0x89, 0x3c, 0xe9, 0x3b, 0x2c, 0x3d, 0x63, 0x56,
    0xe8, 0xbd, 0x14, 0x1d, 0x50, 0xbe, 0x48, 0xc1, 0x55, 0x3e,
    0x2d, 0x76, 0x5c, 0x3e, 0x17, 0x6f, 0xd4, 0x3d, 0x48, 0x9c,
    0x93, 0xbe, 0xd0, 0x5f, 0xc0, 0xbe, 0xbe, 0x79, 0x2f, 0xbe,
    0x95, 0xad, 0xc2, 0xbd, 0xcf, 0xcb, 0x6d, 0xbc, 0x26, 0xf8,
    0xdd, 0x3d, 0xba, 0xb2, 0xb4, 0xbd, 0xe0, 0xf1, 0x88, 0x3d,
    0xd6, 0xc3, 0x82, 0xbe, 0xed, 0xbf, 0x82, 0xbe, 0xce, 0x25,
    0x5f, 0x3c, 0x52, 0xf7, 0x27, 0x3e, 0x74, 0x30, 0x6c, 0xbb,
    0x93, 0xc6, 0x1f, 0x3e, 0xe3, 0xcc, 0xb8, 0x3e, 0xcb, 0xdd,
    0x56, 0x3d, 0xa5, 0x37, 0xdc, 0xbc, 0x85, 0xcd, 0x26, 0xbe,
    0xdb, 0xaf, 0x53, 0xbe, 0x9b, 0x65, 0x8c, 0x3e, 0xbb, 0xd2,
    0xc7, 0x3d, 0x1c, 0x26, 0xcc, 0x3e, 0x3f, 0x56, 0x18, 0x3d,
    0xae, 0x65, 0xb4, 0x3b, 0xd4, 0x92, 0x68, 0xbe, 0x84, 0xda,
    0xac, 0x3c, 0xbe, 0xde, 0x33, 0xbe, 0xfa, 0x3b, 0x47, 0x3b,
    0x91, 0xaf, 0x41, 0x3e, 0x23, 0x31, 0xc1, 0x3a, 0xfd, 0x86,
    0xa1, 0x3d, 0xd5, 0xd8, 0x3c, 0xbe, 0x1c, 0x65, 0x96, 0xbe,
    0x0c, 0x7a, 0x10, 0xbe, 0x2c, 0x84, 0x1e, 0x3d, 0xb5, 0x91,
    0x96, 0x3c, 0x1f, 0xdb, 0xcc, 0x3d, 0xd6, 0x95, 0xad, 0x3e,
    0x3b, 0x06, 0xd7, 0x3d, 0xaf, 0x8d, 0x90, 0xbb, 0x09, 0x20,
    0xe9, 0x3d, 0x17, 0x49, 0xe9, 0x3c, 0xe8, 0xc5, 0x39, 0xbe,
    0xf4, 0xf7, 0xe1, 0xbc, 0x5c, 0x2d, 0xd5, 0x39, 0x62, 0xd7,
    0xb9, 0x3e, 0xac, 0xa3, 0x8e, 0x3e, 0x6a, 0xb5, 0x4b, 0x3e,
    0x5a, 0x53, 0xbb, 0xbc, 0x12, 0x3a, 0x84, 0x3a, 0x1c, 0xeb,
    0x1b, 0x3e, 0x6c, 0xd4, 0x9a, 0xbd, 0x9b, 0x5c, 0x44, 0xbd,
    0x00, 0xd5, 0xca, 0x3e, 0xf1, 0x12, 0xc6, 0x3c, 0xcb, 0x69,
    0x9a, 0x3d, 0x35, 0x47, 0x5e, 0xbc, 0x24, 0x6e, 0xe4, 0xbd,
    0x83, 0x36, 0xb5, 0xbe, 0xe2, 0xc4, 0xfa, 0x3d, 0xc1, 0x61,
    0x5c, 0xbe, 0x90, 0xec, 0x56, 0xbc, 0x9c, 0x1d, 0x57, 0xbe,
    0x9d, 0x02, 0xa8, 0xbe, 0xeb, 0xb7, 0xa6, 0xbe, 0xff, 0x49,
    0x57, 0xbe, 0x2a, 0x52, 0x06, 0x3e, 0x5a, 0x53, 0x97, 0xbd,
    0xfc, 0x4f, 0x60, 0xbe, 0xe5, 0x95, 0x7d, 0x3e, 0x09, 0x3e,
    0xdc, 0xbd, 0x11, 0xf0, 0xec, 0xbc, 0xba, 0xe0, 0x11, 0x3e,
    0xa2, 0xaf, 0xf8, 0x3d, 0x75, 0xa7, 0x83, 0xbd, 0x09, 0xf7,
    0xc7, 0xbd, 0x71, 0x90, 0x20, 0xbe, 0x32, 0x8f, 0xb3, 0xbd,
    0x91, 0x62, 0x7c, 0xbe, 0xd3, 0xb0, 0x93, 0xbe, 0x51, 0x70,
    0x68, 0x3b, 0x69, 0xcb, 0x99, 0xbe, 0x81, 0x43, 0xa5, 0xbe,
    0x9a, 0x51, 0x85, 0x3e, 0xcc, 0x3e, 0x7c, 0xbd, 0x64, 0x1d,
    0x14, 0xbe, 0x1b, 0x04, 0xa1, 0xbc, 0x1e, 0x65, 0x00, 0x3e,
    0x30, 0x08, 0x0b, 0xbe, 0x15, 0x59, 0x92, 0x3d, 0x09, 0x28,
    0x20, 0xbe, 0x0e, 0x3d, 0x90, 0x3e, 0x89, 0xc1, 0x68, 0x3e,
    0x07, 0xa6, 0x01, 0xbc, 0x7f, 0x50, 0x21, 0x3e, 0x42, 0x73,
    0xb3, 0xbe, 0x72, 0x87, 0x4d, 0xbe, 0x53, 0xe3, 0x2e, 0xbe,
    0x4c, 0x0f, 0x98, 0xbe, 0x9e, 0x4b, 0xa9, 0x3e, 0x3c, 0x22,
    0x95, 0x3d, 0xa3, 0xcf, 0x4f, 0xbd, 0xb8, 0x2f, 0x00, 0xbe,
    0x25, 0x20, 0x69, 0xbe, 0xaa, 0x03, 0x18, 0x3e, 0x72, 0x73,
    0xe7, 0x3d, 0x42, 0xd1, 0x2c, 0xba, 0x08, 0xc3, 0x6b, 0x3e,
    0x52, 0x77, 0xd0, 0x3d, 0xd1, 0x89, 0x32, 0xbd, 0x97, 0xac,
    0x20, 0xbd, 0x47, 0x80, 0xc7, 0x3d, 0x46, 0x93, 0x68, 0x3e,
    0xb6, 0x6f, 0x99, 0x3e, 0xb7, 0x67, 0xc9, 0xbc, 0x78, 0x71,
    0x99, 0x3e, 0x40, 0x40, 0x31, 0x3d, 0xc0, 0xbd, 0x93, 0x3d,
    0xaf, 0x99, 0x41, 0x3e, 0x27, 0x0d, 0x80, 0x3e, 0xeb, 0x7f,
    0xb6, 0x3d, 0x56, 0x76, 0xc7, 0x3d, 0x51, 0xc8, 0x9b, 0x3e,
    0x19, 0xef, 0xbc, 0x3e, 0x42, 0xf6, 0x2a, 0x3e, 0xce, 0x46,
    0xc0, 0x3e, 0x70, 0x4f, 0x3a, 0x3e, 0xf7, 0x9d, 0xcb, 0x3e,
    0x40, 0xfc, 0xb6, 0x3e, 0x5b, 0x9a, 0x61, 0x3e, 0x16, 0x9d,
    0x01, 0x3e, 0xab, 0xd0, 0xb7, 0x3d, 0x92, 0xed, 0xcd, 0x3e,
    0x00, 0x2d, 0x25, 0xbc, 0x94, 0x2a, 0x19, 0xbc, 0xdd, 0x1e,
    0xd6, 0x3e, 0x63, 0xaf, 0xac, 0x3e, 0x7b, 0x24, 0xa6, 0x3e,
    0x8e, 0x75, 0x12, 0xbc, 0xc9, 0x18, 0xbd, 0x3d, 0x7f, 0x06,
    0x16, 0x3e, 0x63, 0x19, 0xc6, 0x3d, 0x1a, 0x18, 0x6b, 0x3d,
    0xf2, 0xb4, 0x35, 0x3e, 0x0e, 0xe9, 0xe5, 0x3d, 0x8d, 0x44,
    0x9b, 0xbc, 0x67, 0xc8, 0x23, 0x3d, 0x38, 0xfe, 0xec, 0x3d,
    0xf3, 0x71, 0xc4, 0x3c, 0x39, 0x83, 0x05, 0x3e, 0xb1, 0x6b,
    0xb2, 0xbc, 0xd5, 0x48, 0x69, 0xbc, 0x00, 0x00, 0x00, 0x00,
    0x61, 0x8a, 0xa9, 0xbb, 0xec, 0x34, 0x20, 0x3e, 0x92, 0xfb,
    0xe7, 0x3d, 0x88, 0xb7, 0xfb, 0x3d, 0x00, 0x00, 0x00, 0x00,
    0xfa, 0x46, 0x9e, 0x3b, 0x00, 0x00, 0x00, 0x00, 0xa6, 0x3f,
    0x82, 0xbc, 0x15, 0xc3, 0x10, 0xbd, 0x51, 0x98, 0xdc, 0x3d,
    0x20, 0x8b, 0x3d, 0x3d, 0x74, 0xed, 0x4e, 0xbb, 0xd1, 0xf2,
    0x80, 0xbb, 0xc4, 0x30, 0xb2, 0xbb, 0x1b, 0xb7, 0xb0, 0x3d,
    0x65, 0x84, 0x83, 0x3d, 0x77, 0xee, 0x39, 0x3e, 0x5d, 0x38,
    0xab, 0x3d, 0xee, 0x48, 0x93, 0x3d, 0x2a, 0x5e, 0x2b, 0x3d,
    0xf2, 0xbc, 0xf2, 0xbd, 0xaa, 0x70, 0xf9, 0x3e, 0x92, 0x88,
    0x15, 0xbf, 0x36, 0xe7, 0xf4, 0xbe, 0xa5, 0x70, 0x6a, 0xbe,
    0x99, 0x9f, 0xf0, 0x3e, 0x35, 0x6f, 0xe4, 0xbe, 0x0c, 0x51,
    0xab, 0x3e, 0x99, 0xb4, 0xbf, 0xbe, 0x6f, 0xc6, 0x71, 0x3e,
    0x17, 0x97, 0x7a, 0x3e, 0x44, 0x3c, 0xeb, 0xbd, 0x6a, 0x13,
    0x8a, 0x3e, 0x20, 0x75, 0x40, 0x3d, 0xaf, 0x73, 0xfa, 0xbe,
    0xbc, 0x0a, 0x7a, 0x3e, 0x33, 0xbd, 0xa1, 0x3e, 0xae, 0x6d,
    0x8c, 0xbd, 0xe1, 0x68, 0xa9, 0xbe, 0xdd, 0xcc, 0xea, 0xbd,
    0xbe, 0x23, 0x98, 0xbe, 0x41, 0x33, 0x1b, 0x3e, 0x5c, 0x01,
    0x5b, 0x3d, 0xf8, 0xf1, 0x60, 0x3d, 0x12, 0x6e, 0x9c, 0xbb,
    0xcf, 0x6e, 0x92, 0x3e, 0x5f, 0x1a, 0x32, 0xbd, 0xcd, 0x32,
    0x04, 0xbd, 0xb1, 0x94, 0x94, 0x3c, 0x7c, 0x5f, 0x8c, 0xbc,
    0x9b, 0x54, 0xf4, 0xbd, 0x7d, 0x58, 0x3b, 0xbe, 0xbf, 0x6d,
    0x48, 0xbe, 0x63, 0x7e, 0x5d, 0xbe, 0xf0, 0xa9, 0xbb, 0xbd,
    0x35, 0xf5, 0x67, 0x3e, 0x88, 0x26, 0x94, 0xbe, 0xee, 0xe0,
    0xe0, 0x3e, 0x84, 0xc4, 0xd0, 0x3e, 0x01, 0xee, 0x38, 0x3e,
    0x41, 0x89, 0xf0, 0x3e, 0x79, 0x30, 0xad, 0xbd, 0x14, 0x13,
    0x5f, 0xbe, 0x3a, 0xef, 0x95, 0xbe, 0x97, 0xc0, 0x3d, 0x3e,
    0x61, 0x76, 0x82, 0xbe, 0xb4, 0xd3, 0x9e, 0xba, 0x57, 0xd2,
    0x10, 0x3e, 0x3c, 0xf9, 0xf8, 0x3d, 0xd8, 0x8b, 0xd4, 0x3d,
    0x5f, 0x21, 0x9b, 0xbe, 0xad, 0xc5, 0x18, 0xbe, 0x23, 0x83,
    0x51, 0x3e, 0x53, 0x74, 0x81, 0xbe, 0x70, 0x55, 0x7f, 0x3e,
    0x5c, 0x27, 0x3b, 0xbc, 0xac, 0x05, 0x74, 0x3d, 0xfe, 0xf4,
    0xcf, 0x3c, 0xed, 0xc1, 0x97, 0x3e, 0xfc, 0x7d, 0xa7, 0xbe,
    0xb6, 0xd9, 0x3c, 0x3e, 0x9e, 0xa5, 0x9f, 0x3e, 0x1e, 0xec,
    0x6e, 0x3b, 0x15, 0x3c, 0xdc, 0x3e, 0x82, 0xca, 0xb9, 0x3e,
    0x3b, 0x3c, 0x6a, 0x3e, 0x0e, 0x8e, 0xc1, 0x3e, 0x25, 0xee,
    0x56, 0x3e, 0xb0, 0x98, 0xde, 0x3d, 0xb4, 0x0a, 0xa9, 0xbe,
    0xba, 0x54, 0xcc, 0xbc, 0x73, 0xcc, 0x8f, 0xbe, 0x80, 0x45,
    0x22, 0x3e, 0xdb, 0x4e, 0xe1, 0xbd, 0x7b, 0xe8, 0x92, 0xbe,
    0x2a, 0x0c, 0x8b, 0xbe, 0xdc, 0xad, 0x89, 0xbd, 0xe4, 0xba,
    0x05, 0x3f, 0x57, 0x27, 0x92, 0x3e, 0x0a, 0xa3, 0xb3, 0x3e,
    0x8c, 0xf3, 0x04, 0xbe, 0x0b, 0x3f, 0xc4, 0xbe, 0xaa, 0xb0,
    0x96, 0xbe, 0x08, 0x13, 0x81, 0xbe, 0x88, 0x19, 0x68, 0xbd,
    0x72, 0xf1, 0xe1, 0x3e, 0x2b, 0x72, 0xc1, 0xbd, 0xf9, 0xb7,
    0x71, 0x3c, 0x8a, 0x4a, 0x46, 0xbd, 0x2e, 0xcd, 0x5a, 0x3e,
    0xd4, 0xa7, 0x0c, 0x3d, 0x22, 0x4b, 0x18, 0xbc, 0xa0, 0x7c,
    0x58, 0x3e, 0xb2, 0x7c, 0xa7, 0xbe, 0xaa, 0x77, 0xd5, 0xbe,
    0x53, 0x74, 0xac, 0xbe, 0x80, 0x74, 0x6f, 0x3d, 0x27, 0x2c,
    0x97, 0xbe, 0xfc, 0x72, 0x2a, 0xbe, 0x40, 0xf9, 0x8d, 0xbd,
    0xca, 0x29, 0x1f, 0xbe, 0x80, 0xb4, 0x29, 0xbb, 0xe0, 0x25,
    0x6a, 0xbd, 0x99, 0x4b, 0x17, 0xbe, 0x64, 0x16, 0xab, 0xbe,
    0x07, 0xf0, 0x89, 0x3e, 0x98, 0x02, 0x37, 0xbd, 0x34, 0x49,
    0xf5, 0x3d, 0x40, 0xcb, 0xaa, 0x3b, 0x8c, 0x08, 0xb6, 0xbd,
    0xc0, 0xf4, 0x5a, 0x3c, 0xfb, 0x47, 0xa0, 0xbe, 0x3e, 0x03,
    0x5d, 0x3e, 0xc0, 0x44, 0x30, 0x3c, 0x76, 0x98, 0x42, 0x3e,
    0xdb, 0x5a, 0x58, 0xbe, 0xc7, 0x49, 0xab, 0xbe, 0xbd, 0x8d,
    0x89, 0x3e, 0xd0, 0x5c, 0x58, 0xbd, 0xe2, 0xee, 0x77, 0x3e,
    0xbb, 0x0f, 0x98, 0x3e, 0x40, 0x6c, 0x06, 0x3d, 0xe6, 0xff,
    0x76, 0xbe, 0xa1, 0x16, 0xa4, 0xbe, 0x50, 0x3d, 0x88, 0x3c,
    0x12, 0x29, 0x15, 0xbe, 0xaf, 0x4b, 0x97, 0xbe, 0xab, 0x6d,
    0xa8, 0x3e, 0xc8, 0x55, 0xda, 0x3e, 0xec, 0x37, 0x04, 0x3f,
    0xb4, 0x05, 0x82, 0xbc, 0xab, 0x6f, 0xc0, 0xbe, 0xda, 0x0a,
    0x5c, 0xbe, 0xa3, 0x8b, 0x83, 0xbe, 0x0a, 0xe2, 0x72, 0x3d,
    0x51, 0xfd, 0xf4, 0x3e, 0x85, 0xbd, 0xdf, 0xbe, 0x40, 0x40,
    0xd4, 0x3e, 0x61, 0xe3, 0x5c, 0x3e, 0x30, 0x1b, 0xa9, 0xbc,
    0x5d, 0x53, 0xcf, 0x3d, 0xfb, 0x30, 0x6e, 0xbd, 0x4d, 0x91,
    0xfe, 0x3e, 0x0b, 0xb2, 0x11, 0xbd, 0x55, 0xfa, 0xab, 0x3e,
    0xaa, 0x0f, 0xa4, 0x3c, 0xbe, 0x9d, 0x93, 0xbe, 0x31, 0x01,
    0x99, 0x3e, 0xca, 0xbe, 0x63, 0xbe, 0x00, 0xd9, 0x86, 0x3e,
    0x76, 0x07, 0xcf, 0xbb, 0x04, 0x88, 0xab, 0xbe, 0xb6, 0x84,
    0x1f, 0xbd, 0x14, 0xa5, 0xc1, 0x3d, 0x83, 0xa8, 0x6d, 0xbe,
    0xcc, 0xb3, 0x60, 0x3d, 0xa8, 0x69, 0xb6, 0x3e, 0xb9, 0xe7,
    0xf5, 0x3e, 0x09, 0x01, 0x8d, 0xbd, 0x65, 0x0a, 0xc0, 0xbe,
    0x09, 0xa1, 0x76, 0xbe, 0xf2, 0x47, 0xa7, 0xbe, 0xdf, 0x9c,
    0x4e, 0xbe, 0xfc, 0x06, 0x28, 0xbe, 0xaa, 0x2c, 0x8c, 0x3c,
    0xe6, 0xad, 0x3d, 0x3e, 0x1e, 0x1b, 0x6b, 0xbe, 0x9c, 0xe1,
    0x87, 0xbe, 0x1f, 0x4c, 0xa5, 0xbd, 0x5a, 0x5c, 0x1c, 0x3e,
    0x1a, 0xc5, 0x9a, 0xbe, 0x00, 0x4d, 0x6d, 0xbb, 0x07, 0x7b,
    0xb3, 0x3e, 0x7f, 0x1a, 0xdc, 0x3d, 0x16, 0x9a, 0x99, 0x3e,
    0x6e, 0x43, 0xbb, 0xbe, 0xb9, 0x75, 0xaa, 0x3e, 0xae, 0x85,
    0xe2, 0x3c, 0x86, 0x52, 0x31, 0x3e, 0x70, 0x48, 0x1f, 0xbe,
    0x6b, 0xa0, 0x77, 0xbe, 0x32, 0x4c, 0x09, 0xbd, 0x33, 0x3c,
    0x84, 0xbe, 0x18, 0x91, 0xdd, 0x3d, 0x30, 0xc8, 0xcc, 0xbd,
    0x42, 0xf1, 0x73, 0x3e, 0xd0, 0x1e, 0x95, 0x3e, 0xae, 0xd1,
    0xd2, 0x3c, 0xf9, 0xb4, 0xa9, 0xbd, 0xeb, 0x99, 0x82, 0x3e,
    0x40, 0x17, 0x8a, 0xbe, 0xcc, 0x04, 0x22, 0xbe, 0x22, 0x3d,
    0x6c, 0xbd, 0x3f, 0x5f, 0xc0, 0xbe, 0xc6, 0x1a, 0x33, 0xbe,
    0x11, 0x05, 0x14, 0xbd, 0x3c, 0xd6, 0x8e, 0xbe, 0x0d, 0xaf,
    0xab, 0x3e, 0xdf, 0xf1, 0xbe, 0x3e, 0xf5, 0x55, 0x9f, 0x3e,
    0xf2, 0x68, 0xf2, 0x3d, 0x3a, 0x08, 0xeb, 0x3c, 0x0b, 0x27,
    0x71, 0x3e, 0x98, 0x22, 0xa4, 0xbe, 0x1d, 0xd3, 0x97, 0x3e,
    0xc2, 0x4b, 0x27, 0x3e, 0x01, 0x5a, 0x8d, 0x3e, 0xcc, 0x0f,
    0xbe, 0xbe, 0x26, 0xc0, 0x37, 0x3e, 0xac, 0x04, 0xd4, 0x3e,
    0xd2, 0x18, 0x26, 0x3e, 0xd3, 0xbb, 0xac, 0xbe, 0xbc, 0xa1,
    0x43, 0x3d, 0xeb, 0xd9, 0xc4, 0x3e, 0x3e, 0x88, 0x06, 0x3f,
    0xfa, 0x24, 0x1d, 0x3e, 0x91, 0xb4, 0x58, 0x3e, 0x47, 0x5f,
    0x00, 0xbe, 0x9a, 0x4a, 0x89, 0x3e, 0x42, 0x80, 0x77, 0xbe,
    0xc3, 0xfa, 0x08, 0x3e, 0x0b, 0xe7, 0xce, 0x3e, 0x73, 0x9a,
    0x30, 0x3e, 0xae, 0x96, 0xf5, 0x3d, 0x44, 0xfe, 0x89, 0x3d,
    0x0e, 0xb4, 0xc8, 0x3d, 0x32, 0x91, 0xdd, 0x3d, 0xad, 0x9b,
    0x78, 0x3d, 0x5f, 0xb6, 0x11, 0xbe, 0x86, 0x62, 0x80, 0x3e,
    0x9b, 0xc4, 0x1d, 0xbe, 0x70, 0xa8, 0x10, 0xbe, 0x47, 0x09,
    0x68, 0x3e, 0x51, 0x1b, 0xc2, 0xbe, 0x4c, 0x00, 0x81, 0x3d,
    0xe7, 0x96, 0x86, 0x3e, 0x40, 0xb2, 0x4f, 0x39, 0xe5, 0x94,
    0x84, 0x3e, 0x26, 0x8f, 0x85, 0x3e, 0x47, 0x82, 0xfd, 0x3e,
    0xc5, 0xa5, 0x53, 0xbe, 0x77, 0x9a, 0xde, 0xbe, 0xc6, 0x4d,
    0x2a, 0xbe, 0x90, 0xa9, 0x6b, 0xbe, 0x7f, 0xc8, 0x1b, 0xbb,
    0xb9, 0x7d, 0xd0, 0x3b, 0x34, 0xdc, 0x87, 0x3e, 0xd9, 0x3b,
    0xaa, 0x3e, 0x5c, 0x5e, 0x80, 0xbd, 0x1a, 0x8a, 0xa7, 0xbd,
    0x12, 0x5f, 0x0d, 0xbe, 0x9d, 0x46, 0xe3, 0x3e, 0xd0, 0xfd,
    0x01, 0x3f, 0x99, 0x9b, 0xff, 0xbe, 0x46, 0x1b, 0x69, 0xbe,
    0x70, 0x31, 0x03, 0x3f, 0x3f, 0x2b, 0xb4, 0xbd, 0x4d, 0xff,
    0xe3, 0x3d, 0x62, 0x4f, 0x16, 0xbf, 0x7e, 0x0a, 0x00, 0x3b,
    0xb6, 0xdb, 0x4e, 0x3e, 0xcb, 0xc0, 0x88, 0x3e, 0x2c, 0xe2,
    0x34, 0x3e, 0xf2, 0x6c, 0x84, 0x3e, 0x5d, 0x2c, 0xc3, 0xbe,
    0x6c, 0xaf, 0x34, 0xbe, 0x10, 0x78, 0x5c, 0xbe, 0x5f, 0x54,
    0x1b, 0xbe, 0x7b, 0x17, 0xf0, 0x3c, 0x55, 0x0d, 0xe2, 0xbd,
    0xb8, 0xbf, 0x1b, 0x3d, 0xe7, 0xd6, 0xda, 0x3e, 0x52, 0x29,
    0x8b, 0xbe, 0xe5, 0x2c, 0x26, 0xbe, 0xa5, 0x76, 0x23, 0xbe,
    0x04, 0x44, 0x7c, 0xbb, 0x26, 0xf5, 0x40, 0xbe, 0x2e, 0x93,
    0x73, 0x3e, 0xd5, 0xbd, 0xf4, 0x3e, 0x5f, 0x89, 0xa7, 0x3e,
    0xe5, 0xc9, 0x6b, 0xbd, 0x95, 0x7c, 0x95, 0xbe, 0x1d, 0xfd,
    0xe5, 0x3e, 0x3a, 0x03, 0xdc, 0x3c, 0xee, 0x91, 0x2c, 0x3d,
    0x00, 0x72, 0xd2, 0xbe, 0x5b, 0x58, 0xea, 0xbe, 0x40, 0xcd,
    0x73, 0x3d, 0xd0, 0x53, 0x66, 0xbe, 0x74, 0xba, 0xb3, 0x3e,
    0x73, 0x26, 0xae, 0xbd, 0xa7, 0xe5, 0xd2, 0x3e, 0xe1, 0x41,
    0xac, 0x39, 0xcc, 0xbf, 0xe0, 0x3d, 0x59, 0x4b, 0x3f, 0x3d,
    0x54, 0x5f, 0x93, 0x3e, 0x12, 0xce, 0xaf, 0xbe, 0x87, 0xe1,
    0x51, 0x3e, 0x51, 0xab, 0x93, 0xbe, 0xad, 0xf9, 0x82, 0xbe,
    0x22, 0x0f, 0x43, 0x3e, 0x26, 0xf5, 0x39, 0xbd, 0xce, 0xa7,
    0xb2, 0x3d, 0xe3, 0x90, 0x87, 0xba, 0x3a, 0x90, 0x41, 0x3e,
    0x70, 0xc5, 0x8a, 0x3e, 0xcd, 0x71, 0x93, 0x3e, 0x6e, 0x0f,
    0xa7, 0x3e, 0xed, 0xdf, 0x5a, 0x3e, 0x76, 0x00, 0xff, 0xbd,
    0x2f, 0xa3, 0x4f, 0xbe, 0xc9, 0x33, 0xa8, 0x3e, 0x56, 0xde,
    0x5c, 0xbe, 0x20, 0xfc, 0x5a, 0xbc, 0x3a, 0xf7, 0x08, 0xbd,
    0x26, 0xb2, 0x3f, 0xbe, 0x69, 0x4c, 0x9a, 0xbe, 0x02, 0xcc,
    0x06, 0x3f, 0x66, 0xfe, 0x13, 0x3e, 0xcc, 0x32, 0xf3, 0xbd,
    0x1c, 0x51, 0x0e, 0x3d, 0xe5, 0xe0, 0xbd, 0x3d, 0x7d, 0xfd,
    0xac, 0xbe, 0x24, 0xa8, 0x98, 0xbe, 0xbe, 0x1d, 0x90, 0x3e,
    0xd3, 0x4f, 0xdb, 0x3e, 0xf6, 0x29, 0x10, 0xbf, 0x07, 0x72,
    0x8e, 0xbe, 0xff, 0x45, 0xb1, 0xbd, 0xa4, 0xa2, 0xf4, 0x3e,
    0x59, 0x01, 0x79, 0x3e, 0x1b, 0x8c, 0xad, 0x3e, 0x3e, 0x64,
    0x1e, 0x3e, 0xc7, 0x58, 0x10, 0xbe, 0xfa, 0xe2, 0xcc, 0xbe,
    0x44, 0x73, 0xc3, 0x3e, 0x7c, 0x03, 0xf1, 0xbd, 0x79, 0x57,
    0xed, 0x3e, 0xe2, 0xfb, 0x0b, 0x3e, 0x21, 0xeb, 0x8b, 0xbe,
    0x69, 0xb6, 0x15, 0xbe, 0xc6, 0x01, 0xf4, 0x3d, 0x32, 0x48,
    0xc1, 0xbe, 0xdb, 0x9d, 0x88, 0xbe, 0xe0, 0x44, 0x17, 0xbd,
    0x88, 0x43, 0x3a, 0xbe, 0xcb, 0xca, 0xf3, 0xbe, 0xc1, 0xe2,
    0xaf, 0xbe, 0xa7, 0xe6, 0x48, 0x3e, 0x5d, 0xb6, 0xe7, 0xbe,
    0x78, 0xdb, 0xd9, 0xbe, 0xc6, 0x28, 0xcf, 0x3e, 0x65, 0x6d,
    0x7a, 0xbd, 0xdb, 0xd7, 0x16, 0xbe, 0x29, 0x9d, 0x88, 0xbe,
    0x9c, 0xc9, 0x9f, 0x3e, 0xbc, 0x6b, 0xcc, 0x3c, 0xd2, 0x93,
    0xdb, 0x3e, 0xfc, 0xba, 0x05, 0x3f, 0xe1, 0x72, 0xa2, 0x3d,
    0xc9, 0x8a, 0x68, 0xbd, 0x39, 0x32, 0x04, 0xbe, 0xaf, 0xea,
    0x61, 0xbc, 0x38, 0x13, 0x13, 0x3d, 0x86, 0xb3, 0xa3, 0xbb,
    0x00, 0xe4, 0xd1, 0x3d, 0xd0, 0xb4, 0xa1, 0x3e, 0xd6, 0xc2,
    0x6d, 0xbc, 0x38, 0x29, 0x97, 0x3d, 0xea, 0x30, 0x16, 0xbe,
    0xe0, 0xa9, 0xf6, 0xbc, 0x75, 0x97, 0x4e, 0x3e, 0x57, 0x78,
    0x64, 0x3e, 0x0e, 0x9b, 0xda, 0x3e, 0xe4, 0xb8, 0xcf, 0x3e,
    0x33, 0xe5, 0xed, 0x3d, 0x34, 0x0d, 0x83, 0x3b, 0x2a, 0x5d,
    0x60, 0xbd, 0x57, 0xc6, 0x9f, 0x3e, 0xaf, 0x2b, 0x7f, 0x3e,
    0x1e, 0xc5, 0x75, 0xbe, 0xd7, 0x59, 0x15, 0x3f, 0x9c, 0x96,
    0x19, 0x3e, 0x82, 0x19, 0x8a, 0x3e, 0x0d, 0x68, 0x26, 0x3d,
    0x34, 0xf7, 0x54, 0x3b, 0x1c, 0x96, 0xc1, 0xbd, 0x67, 0x47,
    0xf6, 0xbc, 0xcb, 0x0a, 0x49, 0x3d, 0xe7, 0x22, 0xa1, 0x3e,
    0x7a, 0xc8, 0x8f, 0x3e, 0x7d, 0x8e, 0x00, 0x3f, 0x8e, 0x04,
    0x19, 0xbe, 0x2b, 0x7a, 0xcc, 0x3e, 0x81, 0xe9, 0x88, 0x3e,
    0x19, 0x2b, 0x3c, 0xbe, 0x83, 0x3e, 0xf6, 0x3d, 0x60, 0x1f,
    0x02, 0xbf, 0xae, 0xce, 0x25, 0x3d, 0xcd, 0x10, 0xfa, 0x3d,
    0xf0, 0x2d, 0x0c, 0x3d, 0xc4, 0xe4, 0xfa, 0x3e, 0xb6, 0x6f,
    0xb3, 0xbe, 0xd8, 0x57, 0x5e, 0x3e, 0x4c, 0x7c, 0x3a, 0xbe,
    0xcc, 0xb6, 0x2f, 0x3e, 0x5b, 0x1f, 0x29, 0xbe, 0xc0, 0x5d,
    0x9f, 0x3d, 0x98, 0x9e, 0xa8, 0x3e, 0x6b, 0xe3, 0x9c, 0xbe,
    0x7e, 0xc0, 0x45, 0xbe, 0x44, 0xc7, 0xa9, 0xbe, 0x85, 0xd5,
    0x29, 0x3e, 0x86, 0xc2, 0x0a, 0x3f, 0x9f, 0xb7, 0xca, 0x3e,
    0xda, 0x19, 0xf0, 0x3d, 0x31, 0xfe, 0x24, 0x3e, 0xef, 0xfe,
    0xfe, 0x3e, 0x0b, 0xe6, 0x10, 0xbf, 0x80, 0xab, 0x91, 0xbe,
    0xc3, 0xf9, 0x99, 0x3d, 0xa9, 0xfe, 0x05, 0x3f, 0xeb, 0xb8,
    0xc6, 0x3d, 0x07, 0xff, 0xeb, 0x3e, 0x79, 0x26, 0x4e, 0xbe,
    0xa7, 0xfc, 0x11, 0x3d, 0xfa, 0xa2, 0x45, 0x3d, 0x35, 0xe2,
    0x46, 0xbe, 0x36, 0x90, 0x8d, 0xbe, 0xee, 0x66, 0xc8, 0x3c,
    0xa4, 0xa0, 0x8f, 0xbe, 0x59, 0xce, 0xdb, 0xbc, 0x3e, 0x1d,
    0x94, 0xbe, 0x5f, 0x98, 0x8a, 0x3e, 0x77, 0x2e, 0x87, 0x3e,
    0x1f, 0x1d, 0x2a, 0xbe, 0x0d, 0x90, 0xa9, 0xbe, 0x66, 0xda,
    0xcf, 0x3e, 0x36, 0xb7, 0xc8, 0x3e, 0x38, 0xc8, 0xee, 0xbc,
    0x89, 0xc8, 0xdf, 0xbd, 0x60, 0xcf, 0x38, 0x3c, 0xcc, 0xf9,
    0x54, 0xbe, 0x86, 0xe9, 0x0d, 0x3e, 0xaa, 0x45, 0x64, 0xbe,
    0xaf, 0x3a, 0x20, 0x3d, 0xe2, 0x83, 0x6e, 0x3d, 0x09, 0x0c,
    0xfd, 0x3d, 0x80, 0xa3, 0xcd, 0xbe, 0xd9, 0xe5, 0xed, 0xbe,
    0x81, 0xf4, 0x9c, 0x3c, 0x27, 0x31, 0x05, 0x3f, 0x09, 0x53,
    0x59, 0xbe, 0xe5, 0x20, 0x85, 0x3e, 0x2d, 0x5b, 0x9b, 0x3e,
    0x19, 0x59, 0x79, 0xbe, 0x09, 0x85, 0xcb, 0x3e, 0x54, 0x7d,
    0x99, 0x3e, 0x74, 0xc1, 0x44, 0xbd, 0x2c, 0xea, 0xb7, 0x3d,
    0x94, 0x02, 0x03, 0xbe, 0x29, 0x8e, 0xcb, 0x3d, 0x63, 0x68,
    0xf9, 0xbd, 0xa0, 0x6c, 0x19, 0x3e, 0x38, 0xe0, 0x49, 0xbd,
    0x66, 0x73, 0x7a, 0x3e, 0x8e, 0x5b, 0x19, 0x3e, 0xe6, 0xbb,
    0xb3, 0x3e, 0xa7, 0xc0, 0xb9, 0x3d, 0xc8, 0x08, 0x35, 0xbd,
    0x5d, 0x4d, 0x44, 0x3e, 0x18, 0xc1, 0xae, 0xbd, 0x36, 0x02,
    0x1f, 0xbe, 0x29, 0x56, 0x27, 0x3e, 0xd2, 0xc9, 0x82, 0x3e,
    0x62, 0x77, 0x87, 0x3c, 0xc3, 0xce, 0x07, 0xbe, 0xe0, 0xbc,
    0xa8, 0x3e, 0xdb, 0xeb, 0xfe, 0x3d, 0x5a, 0xf1, 0x96, 0x3e,
    0xe1, 0x47, 0x73, 0xbe, 0x04, 0xaf, 0xdf, 0x3d, 0x83, 0xc2,
    0xee, 0x3e, 0x4c, 0xaa, 0xd2, 0xbe, 0x64, 0xaa, 0x8d, 0x3e,
    0xab, 0x26, 0xd9, 0x3e, 0xe6, 0x8d, 0x94, 0xbe, 0xdd, 0x19,
    0xa9, 0x3d, 0x36, 0xa5, 0xeb, 0x3e, 0x37, 0x88, 0x06, 0x3f,
    0xf4, 0x52, 0x2f, 0xbe, 0x5f, 0x46, 0x9f, 0x3e, 0xde, 0x58,
    0xa9, 0xbb, 0x41, 0x0e, 0x99, 0x3e, 0xb2, 0xcd, 0xc2, 0xbe,
    0x8f, 0x9a, 0x3a, 0xbe, 0x94, 0x5a, 0x0e, 0x3e, 0x66, 0xe8,
    0xdb, 0x3e, 0x00, 0x40, 0xf9, 0xb8, 0xfb, 0x51, 0x95, 0x3e,
    0xa4, 0x3e, 0xbe, 0x3c, 0xc9, 0x23, 0x84, 0xbb, 0xcc, 0x54,
    0x4c, 0xbe, 0xad, 0x85, 0x86, 0xbe, 0xde, 0x01, 0xb0, 0xbe,
    0x11, 0x04, 0xaf, 0xbe, 0xc0, 0xb2, 0x7c, 0xbe, 0x72, 0x74,
    0xb5, 0xbe, 0x15, 0x75, 0x95, 0x3e, 0xce, 0xc2, 0xb7, 0x3e,
    0xe8, 0x35, 0xfc, 0xbc, 0x2f, 0x3b, 0xe3, 0x3d, 0x24, 0xe5,
    0xd4, 0xbd, 0x72, 0x91, 0x53, 0xbb, 0x4e, 0x05, 0x43, 0x3e,
    0x00, 0x00, 0x00, 0x00, 0xe6, 0x3f, 0x02, 0x3e, 0x5a, 0xb6,
    0xf3, 0xbb, 0x6a, 0x0a, 0x04, 0xbd, 0xa6, 0xa0, 0x2d, 0x3e,
    0xe7, 0x5b, 0xd7, 0xbd, 0x39, 0x2b, 0xab, 0x3d, 0x93, 0x88,
    0x4c, 0x3b, 0x2b, 0x5e, 0x8b, 0xbd, 0x24, 0x7b, 0xa8, 0xbd,
    0xa8, 0x32, 0xbb, 0xbc, 0x92, 0x1b, 0xcc, 0x3d, 0x49, 0xf8,
    0xfa, 0x3d, 0xac, 0x36, 0xdc, 0x3e, 0xe2, 0xd0, 0x06, 0x3e,
    0x99, 0xe2, 0xa4, 0xbe, 0x5c, 0xf9, 0x0c, 0x3e, 0x6a, 0x86,
    0x9d, 0x3e, 0x4e, 0x1c, 0xcc, 0x3e, 0x15, 0x19, 0xe3, 0xbe,
    0x95, 0x48, 0x3e, 0x3e, 0x95, 0xf8, 0x95, 0x3e, 0x9d, 0x34,
    0x34, 0xbf, 0x57, 0x01, 0xed, 0x3e, 0x75, 0x0a, 0x22, 0x3d,
    0x8d, 0x1c, 0x8b, 0xbe, 0xcc, 0x64, 0xf3, 0x3e, 0xa2, 0x51,
    0xc0, 0xbe, 0xea, 0xbe, 0x8d, 0x3e, 0xec, 0x37, 0xab, 0xbe,
    0x5f, 0xc6, 0xee, 0xbe, 0x43, 0x8d, 0x23, 0x3f, 0xf8, 0x4a,
    0x07, 0xbf, 0x0e, 0x0e, 0xfa, 0x3e, 0x52, 0x41, 0xb4, 0x3e,
    0x29, 0xe4, 0xc4, 0xbe, 0xa9, 0x8b, 0x2d, 0x3f, 0xcd, 0x64,
    0x39, 0xbf, 0x3d, 0x0b, 0x2f, 0xbf, 0x6e, 0xe1, 0x29, 0xbf,
    0xc0, 0x5c, 0x3f, 0xbe, 0xb5, 0x63, 0x2d, 0xbf, 0x89, 0xeb,
    0xf5, 0xbd, 0x67, 0x60, 0x63, 0xbe, 0x77, 0x00, 0x95, 0x3e,
    0xe8, 0xa1, 0x17, 0xbf, 0xe3, 0xfb, 0x26, 0x3f, 0xac, 0xa8,
    0x6a, 0xbe, 0x28, 0x0e, 0xce, 0x3d, 0x5c, 0xcf, 0x2f, 0xbf,
    0x24, 0x14, 0xb1, 0xbe, 0x17, 0xf1, 0xad, 0xbd, 0xef, 0xbc,
    0xc6, 0x3e, 0x72, 0xd5, 0x3a, 0xbf, 0xe8, 0xf4, 0x99, 0x3d,
    0xf7, 0x3e, 0xd1, 0x3e, 0x72, 0xc0, 0x25, 0xbf, 0x4c, 0xe1,
    0xb1, 0xbc, 0xa6, 0x29, 0xd9, 0xbe, 0xdd, 0x89, 0x0d, 0x3f,
    0x67, 0x4d, 0x1d, 0x3f, 0x69, 0xad, 0x84, 0xbe, 0xaa, 0xf3,
    0x21, 0x3f, 0x48, 0x09, 0x1d, 0x3e, 0x70, 0x67, 0xee, 0xbd,
    0xc9, 0xbe, 0x4b, 0xbe, 0xce, 0x18, 0x08, 0xbf, 0x11, 0xc4,
    0x46, 0x3e, 0x94, 0x8e, 0x34, 0x3e, 0xc0, 0x59, 0xa9, 0x3e,
    0xbd, 0xa3, 0xb1, 0x3c, 0x9d, 0xce, 0x1a, 0xbf, 0xcb, 0x2d,
    0x15, 0x3f, 0x29, 0x28, 0xd3, 0xbe, 0x9a, 0xc9, 0xb8, 0x3d,
    0x6e, 0xc9, 0x06, 0x3f, 0x13, 0xaf, 0xff, 0xbd, 0xb7, 0x62,
    0x70, 0x3e, 0x1f, 0x01, 0x36, 0x3e, 0xf6, 0x53, 0x23, 0xbf,
    0x00, 0x96, 0x01, 0x3e, 0x60, 0xb2, 0x0c, 0x3f, 0xe2,
    0x03, 0xd0, 0xbe, 0x41, 0x83, 0x3b, 0x3e, 0xfb, 0x25,
    0x33, 0xbf, 0x46, 0x3d, 0x3a, 0xbe, 0xe5, 0x39, 0xf6,
    0x3e, 0x8b, 0x75, 0x38, 0xbe, 0x31, 0x23, 0xd0, 0x3e,
    0xe3, 0xb5, 0xf5, 0x3e, 0xae, 0xf6, 0x19, 0x3f, 0xd2,
    0xa2, 0x68, 0x3e, 0x48, 0xe9, 0xd7, 0x3e, 0xf0, 0x97,
    0x0d, 0xbe, 0xf9, 0xe4, 0x4f, 0x3e, 0xe4, 0x4c, 0x1b,
    0x3e, 0x27, 0xb1, 0x26, 0xbe, 0x73, 0xda, 0xdc, 0xbd
  };

  return AI_HANDLE_PTR(s_network_weights);

}

